{"!":0,"\"":1,"#":2,"$":3,"%":4,"&":5,"'":6,"(":7,")":8,"*":9,"+":10,",":11,"-":12,".":13,"/":14,"0":15,"1":16,"2":17,"3":18,"4":19,"5":20,"6":21,"7":22,"8":23,"9":24,":":25,";":26,"<":27,"=":28,">":29,"?":30,"@":31,"A":32,"B":33,"C":34,"D":35,"E":36,"F":37,"G":38,"H":39,"I":40,"J":41,"K":42,"L":43,"M":44,"N":45,"O":46,"P":47,"Q":48,"R":49,"S":50,"T":51,"U":52,"V":53,"W":54,"X":55,"Y":56,"Z":57,"[":58,"\\":59,"]":60,"^":61,"_":62,"`":63,"a":64,"b":65,"c":66,"d":67,"e":68,"f":69,"g":70,"h":71,"i":72,"j":73,"k":74,"l":75,"m":76,"n":77,"o":78,"p":79,"q":80,"r":81,"s":82,"t":83,"u":84,"v":85,"w":86,"x":87,"y":88,"z":89,"{":90,"|":91,"}":92,"~":93,"¡":94,"¢":95,"£":96,"¤":97,"¥":98,"¦":99,"§":100,"¨":101,"©":102,"ª":103,"«":104,"¬":105,"®":106,"¯":107,"°":108,"±":109,"²":110,"³":111,"´":112,"µ":113,"¶":114,"·":115,"¸":116,"¹":117,"º":118,"»":119,"¼":120,"½":121,"¾":122,"¿":123,"À":124,"Á":125,"Â":126,"Ã":127,"Ä":128,"Å":129,"Æ":130,"Ç":131,"È":132,"É":133,"Ê":134,"Ë":135,"Ì":136,"Í":137,"Î":138,"Ï":139,"Ð":140,"Ñ":141,"Ò":142,"Ó":143,"Ô":144,"Õ":145,"Ö":146,"×":147,"Ø":148,"Ù":149,"Ú":150,"Û":151,"Ü":152,"Ý":153,"Þ":154,"ß":155,"à":156,"á":157,"â":158,"ã":159,"ä":160,"å":161,"æ":162,"ç":163,"è":164,"é":165,"ê":166,"ë":167,"ì":168,"í":169,"î":170,"ï":171,"ð":172,"ñ":173,"ò":174,"ó":175,"ô":176,"õ":177,"ö":178,"÷":179,"ø":180,"ù":181,"ú":182,"û":183,"ü":184,"ý":185,"þ":186,"ÿ":187,"Ā":188,"ā":189,"Ă":190,"ă":191,"Ą":192,"ą":193,"Ć":194,"ć":195,"Ĉ":196,"ĉ":197,"Ċ":198,"ċ":199,"Č":200,"č":201,"Ď":202,"ď":203,"Đ":204,"đ":205,"Ē":206,"ē":207,"Ĕ":208,"ĕ":209,"Ė":210,"ė":211,"Ę":212,"ę":213,"Ě":214,"ě":215,"Ĝ":216,"ĝ":217,"Ğ":218,"ğ":219,"Ġ":220,"ġ":221,"Ģ":222,"ģ":223,"Ĥ":224,"ĥ":225,"Ħ":226,"ħ":227,"Ĩ":228,"ĩ":229,"Ī":230,"ī":231,"Ĭ":232,"ĭ":233,"Į":234,"į":235,"İ":236,"ı":237,"Ĳ":238,"ĳ":239,"Ĵ":240,"ĵ":241,"Ķ":242,"ķ":243,"ĸ":244,"Ĺ":245,"ĺ":246,"Ļ":247,"ļ":248,"Ľ":249,"ľ":250,"Ŀ":251,"ŀ":252,"Ł":253,"ł":254,"Ń":255,"čĊ":256,"Ġa":257,"Ġt":258,"Ġi":259,"Ġ.":260,"ou":261,"re":262,"Ġm":263,"Ġw":264,"in":265,"he":266,"ha":267,"Ġs":268,"Ġy":269,"Ġd":270,"Ġl":271,"ve":272,"Ġyou":273,"Ġb":274,"Ġf":275,"ing":276,"Ġc":277,"Ġto":278,"Ġ?":279,"or":280,"Ġ,":281,"Ġdo":282,"Ġg":283,"hat":284,"ll":285,"nd":286,"Ġo":287,"Ġthe":288,"es":289,"ke":290,"Ġp":291,"Ġn":292,"ho":293,"Ġmy":294,"it":295,"at":296,"Ġli":297,"er":298,"oo":299,"an":300,"Ġ!":301,"st":302,"Ġha":303,"Ġis":304,"me":305,"ay":306,"ar":307,"ot":308,"Ġin":309,"on":310,"ic":311,"Ġe":312,"Ġand":313,"Ġlike":314,"Ġho":315,"Ġare":316,"Ġit":317,"Ġbe":318,"Ġlo":319,"Ġof":320,"hi":321,"Ġhave":322,"ed":323,"'m":324,"Ġso":325,"en":326,"Ġre":327,"Ġam":328,"et":329,"ut":330,"Ġthat":331,"Ġlove":332,"Ġj":333,"Ġon":334,"ri":335,"ld":336,"Ġfor":337,"al":338,"ood":339,"ro":340,"as":341,"us":342,"Ġme":343,"all":344,"gh":345,"Ġan":346,"out":347,"ver":348,"Ġwhat":349,"ad":350,"Ġhe":351,"Ġhow":352,"le":353,"ly":354,"ust":355,"ch":356,"ow":357,"Ġwe":358,"un":359,"Ġwor":360,"id":361,"Ġk":362,"Ġst":363,"Ġbut":364,"Ġnot":365,"ra":366,"Ġfa":367,"that":368,"Ġco":369,"is":370,"ith":371,"Ġwith":372,"Ġwork":373,"Ġth":374,"Ġgo":375,"ea":376,"ally":377,"Ġyour":378,"se":379,"Ġjust":380,"Ġmo":381,"Ġgood":382,"Ġat":383,"ould":384,"ght":385,"Ġab":386,"'s":387,"Ġne":388,"Ġtoo":389,"Ġabout":390,"ite":391,"Ġal":392,"ce":393,"Ġpl":394,"her":395,"ice":396,"nds":397,"reat":398,"ake":399,"Ġcan":400,"'t":401,"nt":402,"ol":403,"Ġany":404,"ck":405,"ry":406,"Ġti":407,"Ġfav":408,"ook":409,"ur":410,"very":411,"Ġsome":412,"ool":413,"rom":414,"ant":415,"up":416,"Ġwhe":417,"ct":418,"ir":419,"Ġfavor":420,"pe":421,"what":422,"Ġfrom":423,"Ġget":424,"oh":425,"Ġfavorite":426,"Ġh":427,"Ġwas":428,"ill":429,"Ġgreat":430,"ind":431,"th":432,"ion":433,"day":434,"oy":435,"Ġse":436,"Ġplay":437,"'ve":438,"yes":439,"Ġen":440,"Ġdon":441,"Ġthere":442,"ies":443,"Ġall":444,"Ġfun":445,"Ġas":446,"are":447,"do":448,"Ġtime":449,"Ġout":450,"im":451,"no":452,"Ġdoing":453,"and":454,"ame":455,"Ġreally":456,"ter":457,"Ġsc":458,"Ġmus":459,"ge":460,"Ġtoday":461,"ell":462,"Ġhi":463,"Ġthey":464,"ine":465,"am":466,"ounds":467,"ink":468,"han":469,"fe":470,"Ġr":471,"llo":472,"Ġlive":473,"uch":474,"Ġread":475,"Ġmusic":476,"ight":477,"hello":478,"Ġup":479,"my":480,"ish":481,"Ġwould":482,"Ġcool":483,"Ġmuch":484,"art":485,"Ġv":486,"Ġdog":487,"Ġday":488,"ure":489,"Ġlot":490,"one":491,"so":492,"rie":493,"Ġthem":494,"ear":495,"king":496,"ough":497,"ers":498,"ent":499,"mp":500,"Ġwant":501,"ving":502,"Ġits":503,"Ġcl":504,"Ġone":505,"Ġwat":506,"Ġnice":507,"eah":508,"joy":509,"Ġenjoy":510,"Ġus":511,"Ġkn":512,"how":513,"Ġsp":514,"ong":515,"ep":516,"Ġnow":517,"est":518,"Ġwell":519,"Ġwhen":520,"ul":521,"Ġvery":522,"ess":523,"Ġgoing":524,"you":525,"ie":526,"Ġpre":527,"Ġeat":528,"Ġsounds":529,"Ġjo":530,"Ġor":531,"hool":532,"ab":533,"hey":534,"eo":535,"Ġbeen":536,"Ġgot":537,"Ġkid":538,"Ġknow":539,"ate":540,"Ġkind":541,"way":542,"el":543,"Ġsh":544,"Ġno":545,"Ġschool":546,"pp":547,"Ġri":548,"lf":549,"Ġar":550,"thing":551,"Ġfrie":552,"Ġwatch":553,"Ġwill":554,"Ġint":555,"yeah":556,"Ġmake":557,"Ġcat":558,"ig":559,"wn":560,"Ġtra":561,"ple":562,"Ġma":563,"ort":564,"ome":565,"his":566,"Ġex":567,"ack":568,"bb":569,"be":570,"ily":571,"Ġdid":572,"Ġthink":573,"Ġfood":574,"Ġjob":575,"not":576,"ting":577,"our":578,"ass":579,"Ġfam":580,"ud":581,"Ġkids":582,"if":583,"Ġtea":584,"vel":585,"ty":586,"um":587,"ree":588,"Ġde":589,"Ġcar":590,"Ġthan":591,"Ġbl":592,"Ġhome":593,"Ġman":594,"Ġwhere":595,"ive":596,"Ġthis":597,"Ġyear":598,"Ġbet":599,"Ġfe":600,"Ġlol":601,"Ġthough":602,"ast":603,"Ġhobb":604,"Ġthing":605,"Ġhere":606,"lor":607,"ist":608,"Ġshe":609,"ian":610,"il":611,"ning":612,"Ġmom":613,"ain":614,"lle":615,"kes":616,"Ġmar":617,"Ġalso":618,"Ġshould":619,"Ġfamily":620,"ore":621,"ard":622,"well":623,"Ġcould":624,"Ġold":625,"Ġdogs":626,"Ġbook":627,"ks":628,"ru":629,"tty":630,"Ġtry":631,"self":632,"ways":633,"Ġcook":634,"Ġgu":635,"ets":636,"Ġonly":637,"Ġcolle":638,"hy":639,"ound":640,"Ġneed":641,"lp":642,"Ġtw":643,"ation":644,"Ġhad":645,"Ġtake":646,"Ġnew":647,"wow":648,"Ġok":649,"Ġhelp":650,"Ġmore":651,"Ġnever":652,"ried":653,"Ġsee":654,"Ġalways":655,"Ġtravel":656,"ually":657,"wes":658,"Ġpro":659,"wesome":660,"nice":661,"ount":662,"ss":663,"nder":664,"Ġname":665,"Ġevery":666,"cool":667,"Ġpeo":668,"Ġve":669,"Ġif":670,"Ġcolor":671,"Ġlong":672,"Ġpeople":673,"ere":674,"good":675,"aybe":676,"other":677,"Ġpretty":678,"ci":679,"Ġ2":680,"Ġbea":681,"Ġhobbies":682,"ac":683,"Ġliving":684,"Ġbec":685,"Ġro":686,"orry":687,"Ġdoes":688,"oon":689,"Ġhope":690,"Ġmov":691,"ag":692,"Ġsw":693,"Ġsure":694,"aus":695,"Ġstud":696,"ne":697,"ather":698,"als":699,"Ġwee":700,"Ġright":701,"Ġke":702,"Ġsing":703,"Ġche":704,"Ġlist":705,"Ġhar":706,"Ġoff":707,"'d":708,"Ġdri":709,"Ġeve":710,"ause":711,"tim":712,"Ġcomp":713,"Ġlisten":714,"Ġ1":715,"Ġwish":716,"Ġsm":717,"Ġlook":718,"Ġpets":719,"nts":720,"Ġfriends":721,"erest":722,"Ġra":723,"Ġbest":724,"Ġfar":725,"Ġcon":726,"Ġcollege":727,"qu":728,"ther":729,"Ġaf":730,"Ġact":731,"Ġanim":732,"Ġher":733,"au":734,"uck":735,"zz":736,"Ġch":737,"ames":738,"ball":739,"Ġsho":740,"Ġbus":741,"Ġbeing":742,"ire":743,"Ġawesome":744,"ous":745,"ance":746,"Ġtwo":747,"cer":748,"Ġ3":749,"Ġown":750,"Ġother":751,"Ġchi":752,"Ġcats":753,"'ll":754,"ful":755,"Ġag":756,"itt":757,"Ġkeep":758,"ng":759,"Ġway":760,"Ġfish":761,"Ġhear":762,"times":763,"Ġwho":764,"Ġthen":765,"Ġlife":766,"Ġever":767,"get":768,"Ġu":769,"Ġworking":770,"Ġclass":771,"na":772,"Ġtell":773,"Ġwr":774,"Ġstill":775,"Ġrun":776,"Ġmarried":777,"les":778,"whe":779,"Ġbo":780,"Ġmost":781,"Ġmany":782,"Ġhard":783,"Ġun":784,"ren":785,"Ġbr":786,"Ġbecause":787,"Ġwo":788,"Ġshow":789,"Ġcare":790,"Ġinto":791,"Ġinterest":792,"ia":793,"Ġdra":794,"Ġback":795,"Ġton":796,"Ġpare":797,"ity":798,"Ġrel":799,"Ġfriend":800,"Ġspe":801,"Ġsorry":802,"Ġcount":803,"Ġhas":804,"Ġcom":805,"Ġdad":806,"Ġover":807,"Ġpo":808,"ft":809,"Ġbad":810,"Ġfeel":811,"Ġthings":812,"Ġbooks":813,"og":814,"ress":815,"Ġhair":816,"ment":817,"Ġparents":818,"Ġgames":819,"ide":820,"Ġyears":821,"Ġafter":822,"'re":823,"Ġmaybe":824,"ince":825,"Ġsay":826,"Ġel":827,"Ġsometimes":828,"Ġhus":829,"Ġby":830,"Ġyourself":831,"ble":832,"Ġmone":833,"Ġsoon":834,"Ġdr":835,"Ġused":836,"ittle":837,"Ġelse":838,"Ġbig":839,"Ġgre":840,"Ġstay":841,"Ġteach":842,"Ġtonight":843,"Ġhusb":844,"Ġmoney":845,"Ġla":846,"Ġlittle":847,"oot":848,"Ġsport":849,"Ġwatching":850,"the":851,"Ġmust":852,"Ġsa":853,"ors":854,"Ġgir":855,"Ġanything":856,"Ġreading":857,"Ġbetter":858,"aught":859,"Ġhusband":860,"ny":861,"Ġta":862,"rent":863,"Ġwhy":864,"Ġbu":865,"Ġpi":866,"Ġnight":867,"Ġplaying":868,"Ġart":869,"Ġmovies":870,"mo":871,"we":872,"Ġhat":873,"Ġte":874,"hose":875,"ideo":876,"Ġhigh":877,"Ġrid":878,"Ġdrive":879,"Ġanimals":880,"Ġinteresting":881,"great":882,"ue":883,"Ġqu":884,"Ġtru":885,"Ġpart":886,"its":887,"Ġokay":888,"where":889,"sounds":890,"Ġmine":891,"Ġwi":892,"Ġsup":893,"Ġle":894,"Ġboy":895,"Ġgr":896,"Ġred":897,"Ġvideo":898,"gan":899,"ms":900,"ub":901,"Ġtal":902,"Ġdi":903,"row":904,"Ġchild":905,"Ġcountry":906,"Ġsince":907,"Ġlear":908,"Ġbas":909,"Ġhapp":910,"Ġsomething":911,"Ġwal":912,"Ġband":913,"Ġpers":914,"ans":915,"ade":916,"Ġhim":917,"Ġguess":918,"zza":919,"they":920,"Ġfind":921,"iting":922,"Ġhaha":923,"Ġaround":924,"Ġperson":925,"red":926,"Ġwa":927,"Ġmeat":928,"Ġstart":929,"Ġstudy":930,"just":931,"te":932,"Ġfl":933,"Ġmyself":934,"hile":935,"ute":936,"Ġgetting":937,"Ġsports":938,"ah":939,"co":940,"ings":941,"Ġmeet":942,"Ġbeaut":943,"man":944,"ok":945,"ull":946,"Ġyes":947,"Ġbi":948,"Ġfine":949,"Ġcra":950,"Ġhate":951,"Ġwife":952,"gg":953,"mm":954,"than":955,"Ġthose":956,"Ġfin":957,"Ġcannot":958,"Ġpizza":959,"hing":960,"ream":961,"Ġwhile":962,"Ġcha":963,"Ġcho":964,"orn":965,"ary":966,"ick":967,"Ġeven":968,"Ġactually":969,"Ġbusy":970,"hed":971,"Ġgra":972,"Ġgame":973,"ich":974,"Ġswim":975,"Ġunder":976,"Ġdrink":977,"ber":978,"cher":979,"os":980,"pt":981,"Ġbre":982,"Ġmove":983,"Ġusually":984,"Ġmakes":985,"Ġweeke":986,"Ġdraw":987,"li":988,"ner":989,"ts":990,"Ġes":991,"Ġad":992,"Ġtv":993,"ouse":994,"Ġdis":995,"Ġfoot":996,"Ġpain":997,"erg":998,"Ġret":999,"Ġonce":1000,"ract":1001,"Ġbeach":1002,"ff":1003,"lol":1004,"mes":1005,"Ġdance":1006,"Ġwere":1007,"Ġcome":1008,"able":1009,"Ġfarm":1010,"Ġbrother":1011,"ose":1012,"Ġmor":1013,"int":1014,"haha":1015,"Ġfir":1016,"ise":1017,"Ġrock":1018,"Ġweek":1019,"ap":1020,"ime":1021,"Ġbro":1022,"ang":1023,"any":1024,"Ġthanks":1025,"cially":1026,"Ġspend":1027,"Ġgreen":1028,"ax":1029,"az":1030,"ace":1031,"Ġsk":1032,"Ġfree":1033,"Ġcall":1034,"ons":1035,"alth":1036,"Ġwhats":1037,"iss":1038,"pecially":1039,"Ġtrying":1040,"Ġwonder":1041,"fer":1042,"side":1043,"Ġ4":1044,"Ġac":1045,"Ġsi":1046,"Ġyoung":1047,"Ġcur":1048,"ese":1049,"Ġhot":1050,"Ġrec":1051,"Ġuse":1052,"iful":1053,"Ġgirl":1054,"Ġchildren":1055,"Ġlearn":1056,"Ġespecially":1057,"ten":1058,"Ġ5":1059,"Ġwh":1060,"hes":1061,"Ġsle":1062,"ict":1063,"ical":1064,"Ġworld":1065,"Ġalone":1066,"Ġhis":1067,"Ġteacher":1068,"age":1069,"Ġour":1070,"Ġdaught":1071,"Ġlast":1072,"Ġbake":1073,"Ġcity":1074,"Ġpar":1075,"ats":1076,"ated":1077,"Ġinst":1078,"Ġhouse":1079,"Ġdone":1080,"ably":1081,"Ġblack":1082,"Ġrelax":1083,"Ġbeautiful":1084,"ron":1085,"ought":1086,"Ġsha":1087,"Ġlea":1088,"Ġcal":1089,"Ġgl":1090,"Ġpass":1091,"Ġreal":1092,"Ġprefer":1093,"Ġfew":1094,"Ġlooking":1095,"most":1096,"Ġmorning":1097,"bl":1098,"bably":1099,"lie":1100,"mer":1101,"ps":1102,"why":1103,"yc":1104,"Ġyet":1105,"Ġyeah":1106,"Ġdin":1107,"Ġamaz":1108,"Ġhealth":1109,"Ġwear":1110,"riend":1111,"Ġmovie":1112,"Ġcomput":1113,"Ġsmall":1114,"Ġsuper":1115,"Ġfootball":1116,"Ġsleep":1117,"ffe":1118,"lo":1119,"Ġmon":1120,"Ġmet":1121,"Ġmight":1122,"Ġwent":1123,"Ġsist":1124,"ory":1125,"anc":1126,"stand":1127,"Ġeng":1128,"Ġswe":1129,"Ġfirst":1130,"maybe":1131,"per":1132,"uff":1133,"xt":1134,"Ġtr":1135,"Ġsad":1136,"Ġsur":1137,"Ġbit":1138,"Ġper":1139,"Ġpur":1140,"Ġhaving":1141,"Ġoften":1142,"right":1143,"eak":1144,"Ġplace":1145,"Ġhu":1146,"Ġcooking":1147,"ations":1148,"Ġstudent":1149,"Ġlistening":1150,"Ġlaw":1151,"Ġretire":1152,"fore":1153,"yea":1154,"Ġaway":1155,"Ġty":1156,"Ġmed":1157,"Ġsame":1158,"Ġchan":1159,"Ġtimes":1160,"Ġblue":1161,"arden":1162,"Ġvegan":1163,"Ġmostly":1164,"Ġtaking":1165,"Ġunderstand":1166,"Ġimp":1167,"Ġmind":1168,"Ġmade":1169,"iness":1170,"Ġsound":1171,"Ġdes":1172,"Ġdif":1173,"Ġluck":1174,"Ġbar":1175,"Ġgive":1176,"Ġgarden":1177,"ither":1178,"Ġhang":1179,"Ġrest":1180,"ason":1181,"Ġoutside":1182,"Ġcars":1183,"Ġhobby":1184,"Ġguy":1185,"col":1186,"really":1187,"Ġmother":1188,"ins":1189,"Ġsu":1190,"llow":1191,"ket":1192,"Ġpr":1193,"Ġheard":1194,"Ġfast":1195,"Ġnext":1196,"Ġhor":1197,"Ġfunny":1198,"Ġvis":1199,"ately":1200,"ours":1201,"Ġtruck":1202,"Ġcurrent":1203,"pen":1204,"have":1205,"Ġsal":1206,"Ġchat":1207,"Ġdown":1208,"att":1209,"oth":1210,"Ġeating":1211,"Ġexc":1212,"Ġthank":1213,"cial":1214,"Ġstudying":1215,"Ġgrand":1216,"Ġrecent":1217,"Ġamazing":1218,"act":1219,"Ġapp":1220,"Ġten":1221,"read":1222,"Ġwin":1223,"Ġwow":1224,"Ġfan":1225,"Ġca":1226,"Ġgro":1227,"ked":1228,"ker":1229,"erc":1230,"Ġbefore":1231,"Ġstuff":1232,"Ġcoffe":1233,"Ġrather":1234,"Ġready":1235,"Ġshop":1236,"Ġbuy":1237,"Ġrecently":1238,"Ġcoffee":1239,"dy":1240,"sp":1241,"Ġmiss":1242,"Ġtoget":1243,"ature":1244,"Ġital":1245,"ence":1246,"asy":1247,"Ġstore":1248,"Ġsell":1249,"Ġseen":1250,"Ġcollect":1251,"Ġprobably":1252,"Ġsingle":1253,"Ġwrite":1254,"Ġride":1255,"Ġwonderful":1256,"Ġdinner":1257,"Ġtogether":1258,"ious":1259,"zy":1260,"Ġado":1261,"Ġmil":1262,"oring":1263,"Ġnur":1264,"Ġbelie":1265,"Ġsoc":1266,"ished":1267,"Ġnear":1268,"pping":1269,"ign":1270,"Ġ10":1271,"Ġbusiness":1272,"Ġagree":1273,"Ġfishing":1274,"Ġwait":1275,"Ġweekend":1276,"Ġdiffe":1277,"ak":1278,"aur":1279,"awesome":1280,"ds":1281,"for":1282,"land":1283,"ming":1284,"Ġind":1285,"Ġfo":1286,"ork":1287,"hone":1288,"ater":1289,"Ġear":1290,"Ġeither":1291,"Ġmean":1292,"Ġhead":1293,"Ġthree":1294,"ctor":1295,"Ġallerg":1296,"Ġdays":1297,"Ġhelps":1298,"Ġprof":1299,"Ġcheese":1300,"Ġevening":1301,"Ġchic":1302,"Ġgrad":1303,"Ġhappy":1304,"Ġbike":1305,"Ġrestaur":1306,"Ġvisit":1307,"Ġcurrently":1308,"Ġrestaurant":1309,"de":1310,"ger":1311,"sorry":1312,"ww":1313,"Ġsit":1314,"Ġda":1315,"ken":1316,"Ġpay":1317,"ition":1318,"ating":1319,"ster":1320,"Ġsto":1321,"Ġplan":1322,"Ġenough":1323,"Ġmaking":1324,"Ġrunning":1325,"Ġwhich":1326,"Ġdaughter":1327,"Ġcomputer":1328,"Ġpurple":1329,"Ġsoccer":1330,"Ġdifferent":1331,"ding":1332,"gree":1333,"ma":1334,"Ġsn":1335,"ath":1336,"arian":1337,"ican":1338,"ries":1339,"Ġmex":1340,"Ġweather":1341,"Ġhun":1342,"Ġvol":1343,"Ġspare":1344,"Ġconcer":1345,"Ġtalk":1346,"Ġhappen":1347,"Ġwalk":1348,"thanks":1349,"Ġrelaxing":1350,"Ġmonth":1351,"colate":1352,"Ġbelieve":1353,"cal":1354,"een":1355,"fin":1356,"line":1357,"mine":1358,"she":1359,"same":1360,"Ġz":1361,"Ġsl":1362,"Ġson":1363,"Ġboring":1364,"Ġcute":1365,"Ġpink":1366,"ics":1367,"Ġloves":1368,"ird":1369,"Ġhours":1370,"Ġseason":1371,"tern":1372,"Ġhike":1373,"Ġclose":1374,"ummer":1375,"Ġdegree":1376,"Ġnamed":1377,"orses":1378,"Ġboys":1379,"Ġtype":1380,"Ġprofess":1381,"nis":1382,"Ġtur":1383,"Ġim":1384,"Ġlet":1385,"Ġba":1386,"Ġboth":1387,"Ġfre":1388,"Ġcou":1389,"Ġcle":1390,"Ġgrow":1391,"Ġtheir":1392,"Ġpet":1393,"Ġpract":1394,"Ġonline":1395,"Ġhows":1396,"unte":1397,"Ġcold":1398,"Ġtired":1399,"Ġsomeone":1400,"Ġwater":1401,"Ġtrain":1402,"Ġveget":1403,"Ġanimal":1404,"Ġshows":1405,"Ġleft":1406,"Ġcrazy":1407,"thank":1408,"Ġhealthy":1409,"Ġvolunte":1410,"full":1411,"iv":1412,"loy":1413,"om":1414,"ping":1415,"sing":1416,"sure":1417,"Ġ6":1418,"Ġtri":1419,"Ġmin":1420,"Ġser":1421,"Ġsong":1422,"Ġlake":1423,"Ġfall":1424,"Ġfather":1425,"Ġfull":1426,"Ġtom":1427,"key":1428,"itar":1429,"ert":1430,"ashi":1431,"Ġworks":1432,"itely":1433,"Ġhorses":1434,"ures":1435,"some":1436,"Ġclot":1437,"Ġexerc":1438,"Ġdidn":1439,"Ġguitar":1440,"Ġ20":1441,"Ġrain":1442,"Ġriding":1443,"Ġtrue":1444,"Ġfinished":1445,"Ġchocolate":1446,"Ġacc":1447,"Ġgradu":1448,"finitely":1449,"Ġimag":1450,"Ġvolunteer":1451,"ach":1452,"azz":1453,"iz":1454,"ling":1455,"pl":1456,"Ġ7":1457,"Ġmount":1458,"Ġsun":1459,"Ġya":1460,"Ġdream":1461,"Ġpian":1462,"ited":1463,"Ġisn":1464,"Ġjazz":1465,"Ġplayed":1466,"Ġhiking":1467,"Ġlots":1468,"Ġwanted":1469,"Ġeverything":1470,"Ġcompany":1471,"Ġshopping":1472,"Ġago":1473,"Ġteaching":1474,"Ġbasket":1475,"ornia":1476,"Ġbreak":1477,"Ġsweet":1478,"Ġitalian":1479,"ail":1480,"che":1481,"fort":1482,"go":1483,"let":1484,"ti":1485,"tra":1486,"vy":1487,"Ġbra":1488,"Ġnor":1489,"ically":1490,"Ġlocal":1491,"Ġstr":1492,"Ġthr":1493,"olog":1494,"uring":1495,"Ġscare":1496,"Ġdoesn":1497,"Ġoffice":1498,"Ġchri":1499,"Ġgirlf":1500,"Ġboyf":1501,"Ġsibl":1502,"Ġglad":1503,"fully":1504,"Ġexercise":1505,"Ġpiano":1506,"Ġage":1507,"Ġtast":1508,"Ġtried":1509,"Ġid":1510,"Ġmic":1511,"Ġwon":1512,"Ġduring":1513,"Ġbur":1514,"Ġfour":1515,"Ġcut":1516,"Ġcam":1517,"Ġdoctor":1518,"Ġpol":1519,"ars":1520,"Ġamer":1521,"unch":1522,"rap":1523,"Ġalot":1524,"Ġalmost":1525,"Ġplac":1526,"fect":1527,"Ġshort":1528,"ifornia":1529,"Ġteam":1530,"Ġdec":1531,"Ġdefinitely":1532,"Ġdriving":1533,"Ġsmo":1534,"ucks":1535,"Ġclasses":1536,"nah":1537,"Ġdrag":1538,"Ġtalking":1539,"Ġbase":1540,"Ġmoved":1541,"Ġpaint":1542,"Ġpassion":1543,"Ġimport":1544,"Ġtennis":1545,"Ġprofession":1546,"Ġmountain":1547,"Ġbasketball":1548,"Ġchrist":1549,"Ġsiblings":1550,"air":1551,"ced":1552,"did":1553,"ect":1554,"ience":1555,"pre":1556,"phone":1557,"ym":1558,"Ġ8":1559,"Ġap":1560,"Ġsummer":1561,"Ġdep":1562,"Ġdanc":1563,"Ġbab":1564,"Ġcake":1565,"Ġcour":1566,"Ġtot":1567,"Ġpot":1568,"Ġpri":1569,"Ġnature":1570,"Ġed":1571,"Ġemp":1572,"hip":1573,"Ġnothing":1574,"Ġface":1575,"Ġthought":1576,"Ġalread":1577,"Ġhur":1578,"doing":1579,"ama":1580,"ongr":1581,"Ġkinds":1582,"Ġproble":1583,"Ġcheck":1584,"Ġagain":1585,"Ġstarted":1586,"Ġlearned":1587,"Ġsister":1588,"Ġretired":1589,"Ġhorse":1590,"Ġthrough":1591,"Ġboyfriend":1592,"Ġimportant":1593,"Ġalready":1594,"bo":1595,"der":1596,"iver":1597,"lish":1598,"mal":1599,"mber":1600,"sh":1601,"time":1602,"Ġtac":1603,"Ġtatt":1604,"Ġiphone":1605,"Ġdel":1606,"Ġlang":1607,"ven":1608,"ves":1609,"Ġput":1610,"Ġple":1611,"hol":1612,"hot":1613,"ange":1614,"Ġend":1615,"Ġeasy":1616,"Ġlost":1617,"Ġsocial":1618,"ense":1619,"Ġlovely":1620,"cept":1621,"andy":1622,"Ġclub":1623,"ummy":1624,"ney":1625,"Ġwoman":1626,"Ġcomm":1627,"Ġpop":1628,"Ġswimming":1629,"Ġweekends":1630,"Ġinstru":1631,"Ġcalifornia":1632,"Ġsurf":1633,"Ġnurse":1634,"Ġgirlfriend":1635,"Ġplaces":1636,"Ġtattoo":1637,"Ġlangu":1638,"br":1639,"bs":1640,"ump":1641,"Ġtall":1642,"Ġtaught":1643,"Ġice":1644,"ina":1645,"Ġball":1646,"Ġbir":1647,"Ġfi":1648,"Ġfore":1649,"Ġgym":1650,"Ġpast":1651,"iter":1652,"Ġintern":1653,"onna":1654,"Ġbeer":1655,"Ġje":1656,"ase":1657,"Ġweird":1658,"Ġstress":1659,"Ġgod":1660,"Ġasking":1661,"Ġoutdo":1662,"nope":1663,"Ġmaj":1664,"Ġthinking":1665,"Ġbecome":1666,"never":1667,"Ġcompet":1668,"Ġsmart":1669,"Ġkeeps":1670,"Ġsave":1671,"okay":1672,"Ġsisters":1673,"Ġadopt":1674,"Ġclean":1675,"Ġpractice":1676,"Ġidea":1677,"Ġbaseball":1678,"pretty":1679,"00":1680,"ces":1681,"can":1682,"ever":1683,"eum":1684,"gs":1685,"ild":1686,"mas":1687,"ues":1688,"Ġ;":1689,"Ġsub":1690,"Ġdy":1691,"Ġflor":1692,"Ġfren":1693,"orrow":1694,"atur":1695,"unk":1696,"ides":1697,"ident":1698,"Ġsteak":1699,"Ġatt":1700,"Ġgets":1701,"ions":1702,"Ġmuseum":1703,"artment":1704,"ult":1705,"Ġnovel":1706,"Ġtraveling":1707,"Ġrap":1708,"Ġgrew":1709,"Ġsaid":1710,"Ġparty":1711,"Ġwalking":1712,"Ġwaiting":1713,"apan":1714,"Ġbrown":1715,"Ġski":1716,"Ġleast":1717,"Ġhuge":1718,"lloween":1719,"Ġexciting":1720,"Ġwinter":1721,"Ġchicken":1722,"Ġconcerts":1723,"Ġturn":1724,"Ġvegetarian":1725,"Ġimagine":1726,"Ġdancing":1727,"Ġcourse":1728,"Ġproblem":1729,"Ġflorid":1730,"Ġfrench":1731,"io":1732,"less":1733,"sc":1734,"sive":1735,"uc":1736,"vor":1737,"ward":1738,"oud":1739,"Ġmat":1740,"Ġmay":1741,"Ġsick":1742,"Ġyog":1743,"Ġdar":1744,"Ġlately":1745,"Ġfol":1746,"Ġcame":1747,"Ġcart":1748,"Ġcream":1749,"Ġopen":1750,"esides":1751,"Ġphot":1752,"ates":1753,"ots":1754,"Ġinc":1755,"ica":1756,"Ġbed":1757,"Ġones":1758,"rill":1759,"Ġweight":1760,"Ġplans":1761,"Ġcanad":1762,"ills":1763,"does":1764,"Ġvi":1765,"Ġmag":1766,"Ġseems":1767,"Ġcons":1768,"augh":1769,"Ġtech":1770,"Ġsupp":1771,"Ġdied":1772,"Ġflow":1773,"like":1774,"Ġpainting":1775,"interest":1776,"Ġmetal":1777,"Ġenglish":1778,"Ġmonths":1779,"Ġbaking":1780,"Ġclothes":1781,"fortun":1782,"ology":1783,"Ġbaby":1784,"Ġoutdoors":1785,"Ġflorida":1786,"Ġyoga":1787,"ckey":1788,"don":1789,"ead":1790,"more":1791,"to":1792,"tu":1793,"tell":1794,"xas":1795,"Ġtre":1796,"Ġwed":1797,"Ġshi":1798,"Ġsuch":1799,"Ġless":1800,"Ġlate":1801,"Ġbought":1802,"Ġfr":1803,"Ġfight":1804,"Ġge":1805,"Ġgen":1806,"Ġgone":1807,"Ġoc":1808,"ital":1809,"itting":1810,"Ġlikes":1811,"Ġlift":1812,"ank":1813,"Ġhalloween":1814,"ico":1815,"Ġhockey":1816,"Ġbeat":1817,"Ġjapan":1818,"rible":1819,"Ġanime":1820,"Ġheart":1821,"ids":1822,"Ġyours":1823,"Ġalright":1824,"Ġanymore":1825,"Ġsew":1826,"Ġroo":1827,"Ġrich":1828,"ular":1829,"ield":1830,"ables":1831,"abama":1832,"pped":1833,"Ġcatch":1834,"Ġjobs":1835,"ude":1836,"Ġdeal":1837,"Ġolder":1838,"Ġcookies":1839,"Ġcont":1840,"Ġshoes":1841,"Ġclassical":1842,"Ġwrong":1843,"Ġwriting":1844,"Ġcareer":1845,"Ġbuild":1846,"Ġdiet":1847,"Ġlearning":1848,"ggs":1849,"Ġchar":1850,"anything":1851,"Ġcalled":1852,"Ġgirls":1853,"Ġpark":1854,"Ġinstead":1855,"love":1856,"Ġhanging":1857,"Ġfollow":1858,"Ġallergic":1859,"Ġtomorrow":1860,"Ġtotally":1861,"Ġbirth":1862,"book":1863,"ject":1864,"ta":1865,"who":1866,"Ġaw":1867,"Ġmid":1868,"Ġwan":1869,"Ġwood":1870,"Ġsucks":1871,"Ġyoutu":1872,"Ġfive":1873,"Ġcor":1874,"Ġcro":1875,"Ġcreat":1876,"Ġcru":1877,"Ġcandy":1878,"Ġoh":1879,"Ġoce":1880,"Ġpe":1881,"Ġpep":1882,"Ġner":1883,"Ġhand":1884,"Ġins":1885,"Ġeyes":1886,"Ġeggs":1887,"Ġrem":1888,"own":1889,"Ġworth":1890,"Ġstate":1891,"Ġstory":1892,"Ġfact":1893,"Ġable":1894,"Ġtook":1895,"ction":1896,"Ġhum":1897,"Ġvo":1898,"Ġspeak":1899,"Ġfamous":1900,"Ġdead":1901,"Ġeveryone":1902,"ages":1903,"ucky":1904,"when":1905,"Ġbob":1906,"Ġunfortun":1907,"Ġrelations":1908,"Ġartist":1909,"Ġtexas":1910,"Ġadd":1911,"Ġbrothers":1912,"Ġdaily":1913,"Ġslow":1914,"ertain":1915,"ashion":1916,"Ġscared":1917,"interesting":1918,"Ġyoutube":1919,"ave":1920,"ca":1921,"cha":1922,"cle":1923,"congr":1924,"dd":1925,"gu":1926,"sol":1927,"ton":1928,"Ġmi":1929,"Ġmad":1930,"Ġwar":1931,"Ġsign":1932,"Ġll":1933,"Ġlar":1934,"Ġborn":1935,"Ġbesides":1936,"Ġfly":1937,"Ġfant":1938,"Ġfru":1939,"Ġfound":1940,"Ġfashion":1941,"Ġcause":1942,"Ġtown":1943,"Ġgonna":1944,"Ġpict":1945,"itive":1946,"Ġele":1947,"Ġreme":1948,"rop":1949,"Ġstar":1950,"eace":1951,"Ġalong":1952,"Ġalabama":1953,"Ġcant":1954,"Ġanywhere":1955,"whats":1956,"Ġplayer":1957,"Ġenerg":1958,"Ġlives":1959,"Ġenjoying":1960,"your":1961,"Ġarmy":1962,"Ġmain":1963,"Ġexpen":1964,"Ġextra":1965,"nothing":1966,"Ġvet":1967,"Ġvegg":1968,"Ġcolors":1969,"Ġsinging":1970,"Ġchur":1971,"ograp":1972,"Ġgrade":1973,"Ġbeauty":1974,"Ġdrawing":1975,"Ġbroke":1976,"Ġsix":1977,"Ġdaughters":1978,"Ġleave":1979,"Ġcali":1980,"Ġhuh":1981,"Ġexcited":1982,"Ġgrocer":1983,"kers":1984,"Ġstop":1985,"Ġmexican":1986,"Ġhunting":1987,"Ġcouple":1988,"loyed":1989,"Ġtrip":1990,"sometimes":1991,"Ġchristmas":1992,"Ġfix":1993,"Ġmajor":1994,"Ġdark":1995,"Ġbirthday":1996,"Ġwanna":1997,"Ġocean":1998,"solute":1999,"Ġlarge":2000,"Ġfruit":2001,"ald":2002,"back":2003,"cus":2004,"ched":2005,"ches":2006,"every":2007,"hmm":2008,"ient":2009,"min":2010,"mar":2011,"ond":2012,"ring":2013,"vice":2014,"work":2015,"yep":2016,"rest":2017,"Ġmot":2018,"Ġsy":2019,"Ġset":2020,"Ġyork":2021,"Ġdan":2022,"Ġlab":2023,"Ġlaugh":2024,"Ġbow":2025,"Ġfig":2026,"Ġfil":2027,"Ġcri":2028,"lling":2029,"Ġpool":2030,"hon":2031,"hope":2032,"ston":2033,"Ġham":2034,"ments":2035,"ones":2036,"Ġent":2037,"Ġeach":2038,"Ġliked":2039,"Ġhosp":2040,"higan":2041,"Ġford":2042,"ustr":2043,"Ġstand":2044,"ram":2045,"Ġsec":2046,"Ġwants":2047,"Ġclim":2048,"Ġusa":2049,"Ġorgan":2050,"Ġgotta":2051,"Ġmakeup":2052,"being":2053,"Ġfoods":2054,"Ġshel":2055,"ago":2056,"Ġwhole":2057,"Ġbox":2058,"Ġuniver":2059,"Ġcoming":2060,"ressive":2061,"Ġmustang":2062,"Ġtend":2063,"Ġquite":2064,"Ġvideos":2065,"Ġdivor":2066,"tend":2067,"Ġbread":2068,"Ġpassed":2069,"mostly":2070,"Ġengine":2071,"Ġperfect":2072,"Ġchance":2073,"Ġdesign":2074,"Ġguys":2075,"Ġsales":2076,"Ġcollection":2077,"Ġchicago":2078,"Ġmexico":2079,"Ġgraduated":2080,"Ġstrong":2081,"Ġmichigan":2082,"Ġpolit":2083,"Ġapartment":2084,"Ġsurfing":2085,"Ġnovels":2086,"Ġcartoon":2087,"Ġcanada":2088,"Ġflowers":2089,"Ġremind":2090,"Ġpictures":2091,"Ġexpensive":2092,"Ġgrocery":2093,"solutely":2094,"bq":2095,"but":2096,"cy":2097,"chi":2098,"del":2099,"fl":2100,"iet":2101,"igh":2102,"lucky":2103,"pes":2104,"ses":2105,"tw":2106,"those":2107,"ual":2108,"uro":2109,"vis":2110,"yer":2111,"Ġ9":2112,"Ġair":2113,"Ġaud":2114,"Ġter":2115,"Ġtough":2116,"ouble":2117,"Ġsus":2118,"Ġsea":2119,"Ġside":2120,"Ġsense":2121,"Ġyummy":2122,"Ġdist":2123,"Ġdress":2124,"Ġlater":2125,"Ġbare":2126,"Ġbbq":2127,"Ġfire":2128,"Ġtold":2129,"nday":2130,"Ġpub":2131,"Ġpeace":2132,"Ġnail":2133,"ato":2134,"Ġlibr":2135,"ane":2136,"ote":2137,"Ġarea":2138,"Ġju":2139,"Ġforget":2140,"Ġanother":2141,"Ġhey":2142,"Ġkill":2143,"Ġfave":2144,"Ġthron":2145,"Ġanyone":2146,"ants":2147,"ohn":2148,"Ġwasn":2149,"Ġscience":2150,"Ġlived":2151,"Ġvan":2152,"Ġvac":2153,"Ġkne":2154,"Ġorange":2155,"Ġkinda":2156,"Ġarm":2157,"Ġexper":2158,"Ġexcept":2159,"asses":2160,"Ġblood":2161,"Ġfeet":2162,"Ġmary":2163,"ored":2164,"Ġneeds":2165,"Ġhopefully":2166,"Ġbody":2167,"Ġcomes":2168,"Ġtakes":2169,"Ġtele":2170,"Ġcharact":2171,"Ġdisney":2172,"ycle":2173,"Ġcomputers":2174,"Ġlawyer":2175,"Ġchange":2176,"Ġdesig":2177,"Ġsunday":2178,"ford":2179,"Ġsongs":2180,"Ġaccount":2181,"Ġaccident":2182,"Ġsmoke":2183,"Ġdragons":2184,"Ġtacos":2185,"Ġplease":2186,"Ġlanguage":2187,"Ġocc":2188,"Ġunfortunately":2189,"Ġremember":2190,"Ġenergy":2191,"Ġchurch":2192,"Ġhospital":2193,"Ġclimb":2194,"Ġengineer":2195,"urope":2196,"Ġthrones":2197,"bt":2198,"come":2199,"ems":2200,"got":2201,"hu":2202,"hlet":2203,"ip":2204,"noon":2205,"ped":2206,"rs":2207,"rit":2208,"Ġrom":2209,"res":2210,"ret":2211,"Ġmc":2212,"Ġsim":2213,"Ġsons":2214,"Ġland":2215,"Ġlone":2216,"Ġlunch":2217,"Ġbills":2218,"Ġbank":2219,"Ġfer":2220,"Ġfest":2221,"Ġcust":2222,"Ġcow":2223,"Ġcup":2224,"Ġcertain":2225,"Ġgrill":2226,"lls":2227,"Ġthese":2228,"keting":2229,"Ġpie":2230,"Ġpig":2231,"Ġny":2232,"Ġnation":2233,"Ġnyc":2234,"itary":2235,"ator":2236,"ative":2237,"arch":2238,"ota":2239,"Ġinv":2240,"only":2241,"Ġeast":2242,"Ġeurope":2243,"Ġworked":2244,"ider":2245,"Ġstra":2246,"Ġcop":2247,"Ġcoll":2248,"Ġcoast":2249,"Ġmoving":2250,"Ġathlet":2251,"olin":2252,"Ġsometime":2253,"Ġhit":2254,"Ġself":2255,"Ġask":2256,"Ġass":2257,"Ġscary":2258,"Ġhist":2259,"Ġenjoyed":2260,"Ġshy":2261,"omen":2262,"umber":2263,"Ġdeath":2264,"Ġmoms":2265,"Ġtraveled":2266,"Ġprog":2267,"Ġeveryday":2268,"Ġeverywhere":2269,"Ġroad":2270,"ager":2271,"Ġchevy":2272,"Ġ18":2273,"Ġchina":2274,"ired":2275,"Ġothers":2276,"Ġboss":2277,"Ġinterested":2278,"Ġspecial":2279,"Ġpos":2280,"Ġpoet":2281,"Ġafternoon":2282,"Ġstaying":2283,"there":2284,"Ġsaw":2285,"com":2286,"Ġchoice":2287,"iction":2288,"Ġglasses":2289,"ancy":2290,"Ġgrown":2291,"Ġmilitary":2292,"Ġnursing":2293,"www":2294,"Ġsitting":2295,"ize":2296,"Ġnorth":2297,"Ġtaste":2298,"Ġcamping":2299,"Ġamerican":2300,"Ġdragon":2301,"Ġpotter":2302,"Ġadopted":2303,"Ġskiing":2304,"ucation":2305,"Ġphotograp":2306,"Ġviolin":2307,"Ġmagic":2308,"Ġtechn":2309,"Ġshelter":2310,"Ġvacation":2311,"Ġlonely":2312,"aw":2313,"avy":2314,"bur":2315,"chan":2316,"cess":2317,"fine":2318,"gers":2319,"ior":2320,"ial":2321,"led":2322,"list":2323,"of":2324,"ror":2325,"sues":2326,"til":2327,"tti":2328,"wel":2329,"yle":2330,"ze":2331,"Ġver":2332,"Ġtreat":2333,"Ġwind":2334,"Ġwine":2335,"Ġwomen":2336,"ines":2337,"hero":2338,"Ġsme":2339,"Ġsar":2340,"Ġdro":2341,"Ġdie":2342,"Ġdire":2343,"Ġlets":2344,"Ġbart":2345,"Ġbac":2346,"Ġboot":2347,"Ġfit":2348,"Ġfut":2349,"Ġfur":2350,"Ġfield":2351,"Ġtoy":2352,"ord":2353,"Ġgi":2354,"Ġgas":2355,"Ġgam":2356,"Ġgave":2357,"lly":2358,"Ġpu":2359,"Ġpit":2360,"Ġpat":2361,"Ġpic":2362,"Ġpack":2363,"Ġphone":2364,"Ġnatur":2365,"Ġmyster":2366,"ites":2367,"eral":2368,"ana":2369,"Ġissues":2370,"Ġhomes":2371,"Ġhoping":2372,"Ġaren":2373,"Ġlos":2374,"Ġreason":2375,"Ġjohn":2376,"rimp":2377,"ale":2378,"alia":2379,"Ġmeans":2380,"Ġmechan":2381,"Ġann":2382,"Ġange":2383,"ads":2384,"Ġheight":2385,"ley":2386,"ower":2387,"unny":2388,"Ġstep":2389,"raid":2390,"Ġcol":2391,"Ġneigh":2392,"Ġcancer":2393,"cks":2394,"urance":2395,"pect":2396,"Ġasp":2397,"ellow":2398,"Ġru":2399,"Ġrad":2400,"Ġwouldn":2401,"riends":2402,"Ġwatched":2403,"Ġorig":2404,"Ġorder":2405,"Ġshrimp":2406,"pper":2407,"orts":2408,"Ġexact":2409,"Ġexpl":2410,"umb":2411,"Ġbless":2412,"Ġblog":2413,"Ġfemal":2414,"Ġmarketing":2415,"Ġtwins":2416,"Ġhelped":2417,"Ġseem":2418,"Ġrob":2419,"Ġdriver":2420,"Ġ16":2421,"Ġrace":2422,"Ġafraid":2423,"Ġactor":2424,"Ġ30":2425,"Ġchili":2426,"Ġruns":2427,"Ġuntil":2428,"Ġsays":2429,"Ġtalent":2430,"Ġwalks":2431,"Ġflo":2432,"Ġfinish":2433,"Ġyounger":2434,"Ġwhite":2435,"ronic":2436,"Ġsuperhero":2437,"pera":2438,"Ġstudents":2439,"Ġmedic":2440,"Ġtrucks":2441,"Ġcakes":2442,"Ġadore":2443,"Ġmilk":2444,"Ġearly":2445,"Ġallergies":2446,"Ġsnow":2447,"Ġhappened":2448,"Ġpolice":2449,"Ġprofessional":2450,"Ġeducation":2451,"Ġtattoos":2452,"Ġstressful":2453,"Ġfolk":2454,"Ġsuppose":2455,"donald":2456,"Ġwedding":2457,"Ġshift":2458,"Ġcharlie":2459,"Ġcruise":2460,"Ġinsurance":2461,"Ġrelationship":2462,"Ġfantasy":2463,"Ġelect":2464,"ustralia":2465,"Ġdivorced":2466,"vision":2467,"Ġpubl":2468,"Ġtelevision":2469,"Ġoccup":2470,"Ġmcdonald":2471,"Ġpoetry":2472,"Ġneighb":2473,"app":2474,"bit":2475,"dle":2476,"ible":2477,"ky":2478,"ler":2479,"mit":2480,"mus":2481,"pro":2482,"sitting":2483,"this":2484,"tte":2485,"wa":2486,"wor":2487,"wer":2488,"will":2489,"Ġer":2490,"Ġaut":2491,"Ġaustralia":2492,"Ġtho":2493,"oubt":2494,"reci":2495,"Ġmood":2496,"Ġment":2497,"Ġmath":2498,"Ġwrest":2499,"hetti":2500,"Ġsill":2501,"Ġliter":2502,"Ġloud":2503,"vest":2504,"vent":2505,"vette":2506,"Ġbing":2507,"Ġfri":2508,"Ġcas":2509,"Ġtop":2510,"Ġdoor":2511,"Ġob":2512,"Ġopp":2513,"Ġopera":2514,"Ġps":2515,"Ġpair":2516,"Ġpump":2517,"Ġnames":2518,"ities":2519,"atul":2520,"anut":2521,"icious":2522,"Ġem":2523,"Ġet":2524,"Ġeas":2525,"Ġres":2526,"Ġrese":2527,"Ġreci":2528,"utes":2529,"Ġjunk":2530,"alous":2531,"asc":2532,"Ġmeant":2533,"veral":2534,"Ġworst":2535,"Ġkar":2536,"Ġstor":2537,"Ġstuck":2538,"Ġstates":2539,"Ġwithout":2540,"Ġthrow":2541,"Ġgolf":2542,"Ġmoment":2543,"Ġalth":2544,"Ġfavour":2545,"Ġsomeday":2546,"Ġwheel":2547,"iring":2548,"Ġwashing":2549,"days":2550,"Ġseveral":2551,"amp":2552,"Ġran":2553,"Ġrout":2554,"Ġmusician":2555,"enty":2556,"Ġspent":2557,"Ġspag":2558,"Ġjoin":2559,"Ġkidding":2560,"Ġcards":2561,"Ġblind":2562,"ards":2563,"Ġnews":2564,"Ġseeing":2565,"Ġsinger":2566,"Ġharry":2567,"Ġlooks":2568,"Ġconf":2569,"Ġconst":2570,"Ġwriter":2571,"Ġboat":2572,"Ġshower":2573,"Ġcomics":2574,"Ġpost":2575,"Ġfeeling":2576,"Ġbigg":2577,"Ġsaving":2578,"Ġquit":2579,"Ġleg":2580,"ansas":2581,"Ġpersonally":2582,"Ġstarting":2583,"Ġdrinks":2584,"Ġdrinking":2585,"Ġdisab":2586,"Ġfirm":2587,"ictor":2588,"Ġparis":2589,"Ġshare":2590,"Ġwearing":2591,"Ġengland":2592,"Ġtrust":2593,"Ġtrouble":2594,"Ġimpressive":2595,"Ġgardening":2596,"Ġchatting":2597,"attle":2598,"actually":2599,"Ġappreci":2600,"Ġgross":2601,"Ġitaly":2602,"Ġsitu":2603,"Ġplanning":2604,"Ġhappens":2605,"Ġzoo":2606,"Ġfresh":2607,"Ġcouch":2608,"Ġvegetables":2609,"ivals":2610,"going":2611,"Ġamerica":2612,"Ġmountains":2613,"Ġemploy":2614,"Ġfacebook":2615,"Ġhurt":2616,"Ġtaco":2617,"Ġdelicious":2618,"holog":2619,"Ġinstrument":2620,"Ġlanguages":2621,"Ġinternet":2622,"Ġsubject":2623,"school":2624,"Ġbeatles":2625,"Ġwoods":2626,"Ġcorvette":2627,"Ġmainly":2628,"Ġveggies":2629,"Ġfixed":2630,"Ġmotor":2631,"Ġfigure":2632,"Ġcrime":2633,"Ġsecret":2634,"child":2635,"Ġbarely":2636,"Ġnails":2637,"atoes":2638,"Ġcharacter":2639,"Ġcustom":2640,"Ġcertainly":2641,"Ġstraight":2642,"Ġhistory":2643,"Ġboots":2644,"Ġfuture":2645,"Ġnatural":2646,"Ġorigin":2647,"Ġfemale":2648,"Ġoccupation":2649,"probably":2650,"Ġsilly":2651,"Ġpumpk":2652,"atulations":2653,"Ġalthough":2654,"Ġspaghetti":2655,"by":2656,"du":2657,"ee":2658,"ex":2659,"ele":2660,"emp":2661,"food":2662,"fli":2663,"gn":2664,"gre":2665,"gin":2666,"gle":2667,"gry":2668,"ib":2669,"ii":2670,"ier":2671,"ile":2672,"ikes":2673,"lid":2674,"ns":2675,"nes":2676,"op":2677,"oint":2678,"ric":2679,"tru":2680,"vious":2681,"Ġut":2682,"Ġest":2683,"Ġthi":2684,"Ġigu":2685,"ouch":2686,"inary":2687,"Ġsan":2688,"Ġsna":2689,"Ġsatur":2690,"Ġdate":2691,"Ġdoubt":2692,"Ġlad":2693,"Ġyoure":2694,"Ġbird":2695,"Ġfron":2696,"Ġfries":2697,"Ġfiction":2698,"Ġcu":2699,"Ġcir":2700,"Ġcongr":2701,"Ġcult":2702,"orge":2703,"orable":2704,"Ġger":2705,"Ġgoo":2706,"Ġgun":2707,"Ġoly":2708,"Ġodd":2709,"Ġtheme":2710,"Ġpick":2711,"Ġpap":2712,"Ġnet":2713,"Ġnut":2714,"Ġnumber":2715,"atch":2716,"athon":2717,"Ġhands":2718,"mend":2719,"ices":2720,"Ġey":2721,"Ġitems":2722,"hio":2723,"Ġloved":2724,"Ġjun":2725,"Ġjam":2726,"ris":2727,"Ġmeal":2728,"Ġanti":2729,"una":2730,"ided":2731,"Ġking":2732,"Ġkat":2733,"Ġstre":2734,"Ġstink":2735,"Ġstation":2736,"Ġbutter":2737,"Ġcond":2738,"Ġcoke":2739,"ising":2740,"Ġgoes":2741,"see":2742,"Ġmodel":2743,"Ġattend":2744,"Ġneat":2745,"Ġplenty":2746,"antic":2747,"iron":2748,"pends":2749,"illa":2750,"Ġseco":2751,"Ġseven":2752,"Ġrough":2753,"Ġclos":2754,"iew":2755,"bby":2756,"ift":2757,"Ġblond":2758,"Ġmanager":2759,"astic":2760,"Ġmarathon":2761,"Ġcouldn":2762,"Ġtwin":2763,"ered":2764,"Ġchef":2765,"Ġevent":2766,"Ġ12":2767,"itten":2768,"Ġwrote":2769,"Ġboard":2770,"Ġunemp":2771,"Ġsaying":2772,"then":2773,"ween":2774,"Ġquest":2775,"Ġpartic":2776,"Ġgrass":2777,"Ġbasically":2778,"Ġbiology":2779,"Ġcraft":2780,"Ġchoose":2781,"Ġbreed":2782,"lier":2783,"Ġbakery":2784,"ycholog":2785,"Ġretirement":2786,"Ġmedia":2787,"Ġlucky":2788,"Ġpray":2789,"Ġprince":2790,"Ġhorrible":2791,"Ġwaitress":2792,"Ġearn":2793,"Ġearlier":2794,"Ġpays":2795,"itions":2796,"Ġhunt":2797,"Ġconcert":2798,"Ġgrowing":2799,"omg":2800,"Ġminutes":2801,"Ġseries":2802,"ashier":2803,"Ġclothing":2804,"Ġtasty":2805,"Ġdecided":2806,"Ġsmoking":2807,"Ġpriv":2808,"Ġhorseback":2809,"Ġpleas":2810,"Ġcommon":2811,"Ġpopular":2812,"Ġtaller":2813,"Ġforever":2814,"Ġjewel":2815,"Ġcompetitive":2816,"Ġdyed":2817,"Ġmuseums":2818,"Ġturned":2819,"wards":2820,"Ġmatter":2821,"Ġfolks":2822,"Ġincl":2823,"Ġsewing":2824,"Ġroom":2825,"Ġpeanut":2826,"Ġnerd":2827,"Ġfactory":2828,"congrats":2829,"Ġdancer":2830,"hopefully":2831,"Ġorganiz":2832,"Ġcartoons":2833,"Ġreminds":2834,"Ġterrible":2835,"Ġlibrary":2836,"Ġjuice":2837,"Ġknew":2838,"Ġexperience":2839,"Ġdesigner":2840,"Ġclimbing":2841,"Ġromantic":2842,"Ġfestivals":2843,"Ġphotography":2844,"Ġtechnology":2845,"Ġsmell":2846,"Ġsarah":2847,"Ġdropped":2848,"Ġmechanic":2849,"Ġannoy":2850,"Ġradio":2851,"Ġmedicine":2852,"Ġneighbor":2853,"Ġliterature":2854,"Ġresearch":2855,"Ġfavourite":2856,"Ġwashington":2857,"Ġbiggest":2858,"ictorian":2859,"Ġappreciate":2860,"children":2861,"flix":2862,"Ġsnakes":2863,"Ġolymp":2864,"Ġjewelry":2865,"af":2866,"aking":2867,"cake":2868,"cif":2869,"count":2870,"cyc":2871,"dra":2872,"eed":2873,"fu":2874,"fic":2875,"fish":2876,"father":2877,"field":2878,"ged":2879,"ied":2880,"ien":2881,"iry":2882,"izza":2883,"ka":2884,"kids":2885,"ls":2886,"must":2887,"mother":2888,"now":2889,"pers":2890,"pizza":2891,"rk":2892,"rot":2893,"sity":2894,"take":2895,"ugg":2896,"were":2897,"ya":2898,"yal":2899,"yup":2900,"yum":2901,"yball":2902,"zel":2903,"Ġur":2904,"Ġav":2905,"Ġtit":2906,"Ġtest":2907,"oup":2908,"Ġmen":2909,"Ġmall":2910,"Ġmart":2911,"Ġmale":2912,"Ġwest":2913,"here":2914,"heart":2915,"har":2916,"haust":2917,"Ġsou":2918,"Ġsen":2919,"Ġsqu":2920,"Ġdet":2921,"Ġlame":2922,"Ġline":2923,"Ġbal":2924,"Ġfu":2925,"Ġfing":2926,"Ġfried":2927,"Ġfasc":2928,"Ġcr":2929,"Ġcoo":2930,"Ġcell":2931,"Ġcub":2932,"Ġcorn":2933,"Ġcable":2934,"Ġcap":2935,"Ġtofu":2936,"nda":2937,"Ġop":2938,"Ġtherap":2939,"Ġphi":2940,"Ġped":2941,"Ġpal":2942,"Ġpies":2943,"Ġpil":2944,"Ġpac":2945,"Ġpower":2946,"Ġnie":2947,"itor":2948,"itche":2949,"Ġlim":2950,"sters":2951,"Ġink":2952,"icer":2953,"icks":2954,"Ġhon":2955,"Ġbell":2956,"Ġbeans":2957,"Ġloving":2958,"Ġlosing":2959,"hie":2960,"hiking":2961,"Ġhaven":2962,"Ġsoft":2963,"ency":2964,"Ġjour":2965,"Ġjump":2966,"lder":2967,"ality":2968,"asag":2969,"ado":2970,"Ġhello":2971,"Ġhowever":2972,"ustry":2973,"Ġkitche":2974,"ramm":2975,"Ġcost":2976,"eaking":2977,"Ġmoder":2978,"Ġabsolutely":2979,"cell":2980,"Ġplants":2981,"olves":2982,"Ġsomewhere":2983,"Ġhour":2984,"Ġasian":2985,"feren":2986,"Ġrus":2987,"Ġrul":2988,"Ġreader":2989,"Ġcooler":2990,"Ġvir":2991,"Ġclou":2992,"Ġclown":2993,"Ġenjoyable":2994,"Ġspr":2995,"Ġspring":2996,"Ġpregn":2997,"absolutely":2998,"Ġnose":2999,"Ġschools":3000,"Ġmac":3001,"Ġexhaust":3002,"Ġfoodie":3003,"ums":3004,"Ġbetween":3005,"Ġfeed":3006,"ility":3007,"lleyball":3008,"Ġveter":3009,"Ġ22":3010,"Ġbecame":3011,"Ġroses":3012,"Ġcheer":3013,"Ġ14":3014,"Ġraw":3015,"Ġraise":3016,"Ġfarms":3017,"Ġactive":3018,"Ġshoot":3019,"Ġkeeping":3020,"Ġwayne":3021,"Ġclassic":3022,"Ġtelling":3023,"Ġbring":3024,"Ġcareful":3025,"Ġfriendly":3026,"Ġspell":3027,"Ġspecif":3028,"Ġcomic":3029,"Ġpoint":3030,"Ġstayed":3031,"Ġdrives":3032,"Ġqueen":3033,"Ġquiet":3034,"Ġleather":3035,"Ġgroup":3036,"Ġdiam":3037,"Ġfla":3038,"comp":3039,"okok":3040,"Ġbiking":3041,"mmm":3042,"mmates":3043,"Ġadmit":3044,"Ġadorable":3045,"Ġdislike":3046,"Ġdisapp":3047,"Ġretail":3048,"Ġcomed":3049,"hahah":3050,"Ġbroken":3051,"Ġspending":3052,"Ġaccept":3053,"Ġyoungest":3054,"Ġ50":3055,"Ġparks":3056,"Ġparrot":3057,"Ġshark":3058,"blue":3059,"Ġtrans":3060,"Ġsurger":3061,"Ġmedit":3062,"Ġgives":3063,"Ġhorror":3064,"Ġsalad":3065,"Ġgrandma":3066,"Ġapples":3067,"Ġindia":3068,"Ġindustry":3069,"Ġstock":3070,"Ġtrips":3071,"Ġservice":3072,"Ġraining":3073,"Ġgraduate":3074,"Ġsuns":3075,"Ġsweetheart":3076,"chet":3077,"lete":3078,"Ġnormal":3079,"Ġburrit":3080,"Ġdecor":3081,"Ġ80":3082,"Ġdepress":3083,"Ġprius":3084,"Ġhurts":3085,"Ġinstruments":3086,"Ġjealous":3087,"Ġdye":3088,"Ġbrownies":3089,"Ġphotos":3090,"Ġconsider":3091,"Ġtrees":3092,"Ġshir":3093,"Ġfrance":3094,"Ġfighting":3095,"Ġjapanese":3096,"Ġroommates":3097,"Ġawful":3098,"Ġcrochet":3099,"Ġcreate":3100,"Ġvolleyball":3101,"Ġaddict":3102,"cakes":3103,"congratulations":3104,"Ġwarm":3105,"Ġflying":3106,"Ġsymp":3107,"Ġfilms":3108,"Ġuniverse":3109,"Ġuniversity":3110,"Ġpolitical":3111,"Ġsushi":3112,"Ġseafood":3113,"Ġpeaceful":3114,"Ġkilled":3115,"Ġvanilla":3116,"Ġnational":3117,"Ġassist":3118,"Ġprogramm":3119,"Ġbacon":3120,"Ġmystery":3121,"Ġangeles":3122,"Ġheights":3123,"Ġexactly":3124,"Ġmcdonalds":3125,"waii":3126,"Ġoppos":3127,"Ġpsycholog":3128,"Ġetc":3129,"Ġrecipes":3130,"Ġdisabled":3131,"Ġlady":3132,"Ġpaper":3133,"Ġnetflix":3134,"Ġstreet":3135,"Ġstinks":3136,"Ġsecond":3137,"Ġunemployed":3138,"Ġprivate":3139,"Ġfascin":3140,"Ġpilot":3141,"asagna":3142,"Ġrules":3143,"Ġdisappoint":3144,"Ġburritos":3145,"ands":3146,"aww":3147,"ba":3148,"bie":3149,"both":3150,"bster":3151,"dge":3152,"dings":3153,"fting":3154,"fast":3155,"gr":3156,"gar":3157,"gue":3158,"hich":3159,"lar":3160,"mally":3161,"nic":3162,"nal":3163,"ness":3164,"nel":3165,"ock":3166,"onder":3167,"ph":3168,"py":3169,"pare":3170,"port":3171,"press":3172,"pair":3173,"ratch":3174,"si":3175,"son":3176,"swe":3177,"ship":3178,"sident":3179,"tun":3180,"try":3181,"town":3182,"uit":3183,"vi":3184,"viron":3185,"wl":3186,"was":3187,"with":3188,"would":3189,"wnt":3190,"ware":3191,"which":3192,"wonder":3193,"Ġx":3194,"Ġtut":3195,"Ġtours":3196,"Ġtrop":3197,"Ġtuna":3198,"Ġiron":3199,"Ġide":3200,"rell":3201,"Ġmr":3202,"Ġmer":3203,"Ġmill":3204,"Ġmist":3205,"Ġmoon":3206,"Ġwhis":3207,"Ġwolves":3208,"inc":3209,"ino":3210,"inese":3211,"hen":3212,"Ġsout":3213,"Ġsand":3214,"Ġsent":3215,"Ġsort":3216,"Ġsour":3217,"Ġsil":3218,"Ġyo":3219,"Ġyea":3220,"Ġyard":3221,"Ġyuck":3222,"Ġyellow":3223,"Ġdish":3224,"Ġdue":3225,"Ġluc":3226,"ved":3227,"vered":3228,"Ġbic":3229,"Ġbill":3230,"Ġbored":3231,"Ġbunny":3232,"Ġfat":3233,"Ġfian":3234,"Ġcab":3235,"Ġcrow":3236,"Ġciv":3237,"Ġcele":3238,"Ġcashier":3239,"Ġtodd":3240,"org":3241,"Ġdownt":3242,"Ġgummy":3243,"Ġgift":3244,"llen":3245,"Ġoil":3246,"Ġowl":3247,"esy":3248,"kets":3249,"Ġpen":3250,"Ġpup":3251,"Ġpounds":3252,"Ġni":3253,"Ġnon":3254,"Ġnavy":3255,"hony":3256,"aters":3257,"anish":3258,"stra":3259,"Ġhabit":3260,"ays":3261,"aris":3262,"Ġinj":3263,"Ġinvest":3264,"oni":3265,"Ġeight":3266,"Ġhop":3267,"Ġhold":3268,"Ġholid":3269,"Ġhonda":3270,"Ġbeard":3271,"Ġlobster":3272,"hies":3273,"hips":3274,"Ġremo":3275,"Ġrepair":3276,"Ġlovers":3277,"Ġjer":3278,"Ġjess":3279,"Ġfortun":3280,"aling":3281,"alright":3282,"rol":3283,"road":3284,"Ġmeals":3285,"Ġworried":3286,"iders":3287,"Ġkansas":3288,"Ġkitten":3289,"Ġste":3290,"Ġstri":3291,"Ġstick":3292,"Ġstable":3293,"Ġstars":3294,"Ġstones":3295,"Ġstyle":3296,"ism":3297,"Ġgold":3298,"Ġgoal":3299,"Ġalive":3300,"Ġaltern":3301,"ndson":3302,"Ġanyway":3303,"Ġtips":3304,"Ġsex":3305,"Ġsend":3306,"Ġenviron":3307,"Ġfuneral":3308,"Ġaside":3309,"dogs":3310,"Ġscoo":3311,"Ġscen":3312,"Ġscratch":3313,"Ġhip":3314,"Ġhikes":3315,"Ġround":3316,"Ġrude":3317,"Ġmusical":3318,"Ġval":3319,"sop":3320,"Ġknit":3321,"Ġspo":3322,"Ġspace":3323,"Ġspanish":3324,"Ġspiders":3325,"ulous":3326,"ieve":3327,"Ġpreferen":3328,"Ġpresident":3329,"Ġorche":3330,"Ġintro":3331,"Ġtraff":3332,"Ġmasters":3333,"bec":3334,"Ġfamil":3335,"Ġteaches":3336,"Ġblame":3337,"Ġmanage":3338,"ives":3339,"istic":3340,"Ġmars":3341,"Ġmarket":3342,"Ġoldest":3343,"ruction":3344,"Ġneeded":3345,"Ġtwice":3346,"Ġhelping":3347,"Ġtravels":3348,"Ġprocess":3349,"Ġvent":3350,"Ġcolorado":3351,"cious":3352,"Ġ21":3353,"Ġrole":3354,"Ġrose":3355,"Ġrolling":3356,"agram":3357,"neat":3358,"Ġcheesy":3359,"Ġofficer":3360,"Ġ19":3361,"Ġsmoot":3362,"Ġrare":3363,"que":3364,"ques":3365,"Ġactress":3366,"Ġactiv":3367,"Ġchinese":3368,"Ġ35":3369,"Ġchihu":3370,"Ġagency":3371,"Ġboston":3372,"Ġharder":3373,"Ġunited":3374,"Ġunless":3375,"Ġbrun":3376,"Ġbrings":3377,"Ġpoor":3378,"Ġlaid":3379,"Ġsav":3380,"Ġtax":3381,"Ġpierc":3382,"Ġhighschool":3383,"Ġquick":3384,"Ġparties":3385,"Ġsuppl":3386,"Ġlev":3387,"ahu":3388,"covered":3389,"Ġmeeting":3390,"Ġbible":3391,"ggest":3392,"Ġfinance":3393,"Ġchair":3394,"Ġgrandson":3395,"Ġadam":3396,"Ġadvice":3397,"Ġadvent":3398,"anger":3399,"Ġsky":3400,"Ġskate":3401,"Ġinstagram":3402,"Ġcalm":3403,"Ġamazon":3404,"Ġsuperman":3405,"Ġsleeping":3406,"losop":3407,"Ġperfor":3408,"Ġpurcha":3409,"Ġchannel":3410,"Ġdiffic":3411,"Ġbars":3412,"Ġsued":3413,"Ġsugar":3414,"Ġsuggest":3415,"Ġgrandchildren":3416,"Ġgrandmother":3417,"Ġapple":3418,"reading":3419,"Ġstores":3420,"Ġmiles":3421,"Ġindie":3422,"Ġindeed":3423,"Ġfond":3424,"Ġallergy":3425,"Ġcheesecake":3426,"Ġstopped":3427,"Ġprofessor":3428,"Ġbands":3429,"Ġfreel":3430,"Ġtrainer":3431,"Ġtrained":3432,"Ġminim":3433,"Ġserve":3434,"Ġ201":3435,"Ġvolunteering":3436,"Ġsunny":3437,"fortable":3438,"Ġbrain":3439,"Ġstrange":3440,"Ġscares":3441,"Ġburger":3442,"Ġcamp":3443,"Ġdepartment":3444,"Ġagainst":3445,"Ġdeliver":3446,"Ġcommun":3447,"Ġpasta":3448,"Ġattract":3449,"Ġmatch":3450,"Ġweights":3451,"Ġtrek":3452,"Ġweddings":3453,"Ġlessons":3454,"Ġgenre":3455,"Ġlifted":3456,"whoa":3457,"Ġmiddle":3458,"Ġcross":3459,"Ġcreative":3460,"Ġpepper":3461,"Ġpeppers":3462,"Ġhandle":3463,"Ġhandful":3464,"Ġhuman":3465,"Ġveggie":3466,"everyone":3467,"ients":3468,"Ġbowling":3469,"Ġhambur":3470,"Ġpolitics":3471,"iety":3472,"Ġaudition":3473,"Ġdistract":3474,"Ġaccounting":3475,"Ġaccountant":3476,"huh":3477,"Ġsimple":3478,"Ġinvol":3479,"Ġathletic":3480,"Ġposition":3481,"Ġbarte":3482,"Ġtoys":3483,"Ġgiving":3484,"Ġcolored":3485,"Ġexplore":3486,"Ġblessed":3487,"Ġelectronic":3488,"Ġauth":3489,"Ġmention":3490,"Ġbinge":3491,"Ġstories":3492,"Ġconfus":3493,"Ġlegal":3494,"Ġcustomers":3495,"Ġpumpkins":3496,"green":3497,"true":3498,"Ġutah":3499,"Ġthir":3500,"Ġiguana":3501,"Ġsaturday":3502,"Ġfront":3503,"Ġcongrats":3504,"Ġgerman":3505,"Ġgoogle":3506,"Ġguns":3507,"Ġeye":3508,"Ġantiques":3509,"Ġblonde":3510,"Ġeventually":3511,"Ġquestion":3512,"Ġcrafts":3513,"Ġannoying":3514,"draw":3515,"Ġsenior":3516,"Ġfingers":3517,"Ġtherapy":3518,"Ġphilosop":3519,"Ġjournal":3520,"Ġkitchen":3521,"cellent":3522,"Ġvirgin":3523,"Ġpregnant":3524,"Ġexhausting":3525,"Ġsurgery":3526,"Ġaddicted":3527,"Ġsymphony":3528,"Ġassistant":3529,"Ġopposite":3530,"Ġfascinating":3531,"Ġdisappointed":3532,"sweet":3533,"Ġtutor":3534,"Ġsouth":3535,"Ġpuppy":3536,"Ġenvironment":3537,"Ġtraffic":3538,"Ġchihuahu":3539,"Ġsupplies":3540,"Ġdifficult":3541,"15":3542,"aven":3543,"bi":3544,"bic":3545,"bow":3546,"bucks":3547,"cl":3548,"cing":3549,"cho":3550,"cra":3551,"care":3552,"cent":3553,"cute":3554,"cats":3555,"cated":3556,"ccol":3557,"cked":3558,"des":3559,"dit":3560,"dream":3561,"dang":3562,"eh":3563,"em":3564,"ees":3565,"fs":3566,"fy":3567,"fun":3568,"fant":3569,"fam":3570,"fest":3571,"funny":3572,"friends":3573,"ging":3574,"gent":3575,"hind":3576,"hma":3577,"iar":3578,"ials":3579,"jack":3580,"kind":3581,"la":3582,"lic":3583,"lad":3584,"laugh":3585,"lcome":3586,"lines":3587,"mb":3588,"mw":3589,"mart":3590,"main":3591,"nut":3592,"od":3593,"old":3594,"po":3595,"rican":3596,"rots":3597,"sed":3598,"sad":3599,"sup":3600,"sion":3601,"since":3602,"sky":3603,"too":3604,"uh":3605,"ubb":3606,"under":3607,"vo":3608,"vid":3609,"vous":3610,"view":3611,"west":3612,"xious":3613,"Ġast":3614,"Ġahahah":3615,"Ġtar":3616,"Ġtree":3617,"Ġir":3618,"Ġiced":3619,"ouston":3620,"reg":3621,"Ġmess":3622,"Ġmort":3623,"Ġwives":3624,"inea":3625,"head":3626,"haps":3627,"Ġsau":3628,"Ġdc":3629,"Ġden":3630,"Ġdry":3631,"Ġdear":3632,"Ġdent":3633,"Ġlay":3634,"Ġlink":3635,"Ġlasagna":3636,"Ġbat":3637,"Ġban":3638,"Ġbout":3639,"Ġbass":3640,"Ġbother":3641,"Ġbath":3642,"Ġbmw":3643,"Ġfed":3644,"Ġfro":3645,"Ġfell":3646,"Ġfear":3647,"Ġfancy":3648,"Ġcand":3649,"Ġcud":3650,"Ġcase":3651,"Ġdolls":3652,"Ġgig":3653,"ller":3654,"ndon":3655,"Ġobs":3656,"Ġohio":3657,"Ġtheater":3658,"keep":3659,"Ġnas":3660,"Ġnast":3661,"Ġnac":3662,"Ġnfl":3663,"Ġnancy":3664,"hos":3665,"itch":3666,"Ġlib":3667,"Ġlie":3668,"erget":3669,"oof":3670,"anim":3671,"store":3672,"Ġhalf":3673,"Ġhalo":3674,"Ġhazel":3675,"Ġhawaii":3676,"med":3677,"met":3678,"arter":3679,"Ġinsp":3680,"icing":3681,"icle":3682,"icans":3683,"Ġeh":3684,"Ġelder":3685,"Ġbel":3686,"Ġbeats":3687,"Ġbears":3688,"Ġbehind":3689,"Ġlose":3690,"Ġloyal":3691,"edictorian":3692,"Ġsold":3693,"Ġsocks":3694,"Ġreg":3695,"Ġrent":3696,"Ġreside":3697,"Ġresc":3698,"Ġrecom":3699,"ette":3700,"etime":3701,"uten":3702,"utter":3703,"Ġlover":3704,"Ġjes":3705,"Ġjell":3706,"Ġjames":3707,"Ġjane":3708,"Ġformal":3709,"Ġforward":3710,"roy":3711,"asons":3712,"Ġangry":3713,"vern":3714,"vert":3715,"Ġhen":3716,"Ġheavy":3717,"Ġheaven":3718,"owed":3719,"Ġwebs":3720,"Ġwelcome":3721,"Ġword":3722,"Ġworries":3723,"iden":3724,"Ġkay":3725,"Ġkiss":3726,"Ġsty":3727,"Ġstain":3728,"Ġsticks":3729,"rain":3730,"Ġfail":3731,"ises":3732,"isher":3733,"isine":3734,"Ġgosh":3735,"Ġgovern":3736,"eaks":3737,"sey":3738,"Ġjustin":3739,"Ġgoods":3740,"Ġate":3741,"Ġalice":3742,"ntly":3743,"Ġtiger":3744,"ooking":3745,"urb":3746,"anta":3747,"cts":3748,"ctic":3749,"ctors":3750,"Ġfavorites":3751,"pend":3752,"Ġhous":3753,"Ġhouston":3754,"illed":3755,"oyd":3756,"Ġseattle":3757,"Ġplays":3758,"Ġenerget":3759,"Ġdonate":3760,"Ġallig":3761,"Ġscar":3762,"Ġscream":3763,"Ġscient":3764,"geon":3765,"Ġhide":3766,"Ġhilar":3767,"arten":3768,"Ġvar":3769,"Ġvint":3770,"Ġdaydream":3771,"ured":3772,"kings":3773,"Ġusing":3774,"Ġknitting":3775,"Ġspl":3776,"Ġspain":3777,"Ġspouse":3778,"Ġspeaking":3779,"Ġwhenever":3780,"Ġprevious":3781,"Ġeater":3782,"Ġjog":3783,"Ġjoke":3784,"Ġjokes":3785,"Ġjoint":3786,"Ġkinderg":3787,"elt":3788,"Ġarcher":3789,"Ġargent":3790,"Ġintell":3791,"Ġexpect":3792,"acks":3793,"before":3794,"ific":3795,"Ġdeep":3796,"Ġdepends":3797,"Ġcarrots":3798,"Ġblow":3799,"Ġblues":3800,"Ġhometown":3801,"Ġmanic":3802,"llege":3803,"arding":3804,"Ġbookstore":3805,"Ġprodu":3806,"Ġlonger":3807,"Ġ23":3808,"neither":3809,"Ġweeks":3810,"Ġkey":3811,"Ġharley":3812,"Ġevents":3813,"Ġcomplete":3814,"Ġsmile":3815,"Ġconver":3816,"Ġaffect":3817,"Ġafford":3818,"Ġacting":3819,"Ġaction":3820,"ires":3821,"Ġways":3822,"Ġhearse":3823,"Ġuf":3824,"Ġboats":3825,"Ġunic":3826,"Ġuncle":3827,"Ġparent":3828,"Ġrelate":3829,"Ġrelig":3830,"Ġcountries":3831,"Ġoverwe":3832,"Ġposs":3833,"Ġhairless":3834,"Ġdrums":3835,"Ġstays":3836,"Ġlakes":3837,"Ġlazy":3838,"Ġbull":3839,"Ġnights":3840,"Ġarts":3841,"Ġwild":3842,"Ġdiving":3843,"Ġbased":3844,"Ġguessing":3845,"Ġwage":3846,"Ġmeats":3847,"Ġfloyd":3848,"college":3849,"Ġfinan":3850,"Ġfinally":3851,"Ġchase":3852,"Ġchains":3853,"Ġchoir":3854,"berries":3855,"life":3856,"Ġpaino":3857,"Ġcomedy":3858,"Ġbroccol":3859,"Ġskin":3860,"Ġcalling":3861,"althy":3862,"Ġ44":3863,"Ġbaked":3864,"Ġbaker":3865,"Ġshame":3866,"Ġshades":3867,"Ġleague":3868,"Ġgluten":3869,"Ġdiner":3870,"ffeine":3871,"Ġsweets":3872,"Ġsweater":3873,"Ġsweaters":3874,"perfect":3875,"Ġtyping":3876,"Ġdesert":3877,"Ġsuit":3878,"Ġproud":3879,"Ġsalon":3880,"Ġcaffeine":3881,"Ġselling":3882,"Ġindian":3883,"Ġfoster":3884,"Ġfocus":3885,"Ġheaded":3886,"Ġrestaurants":3887,"Ġdave":3888,"Ġdairy":3889,"Ġpaying":3890,"Ġplane":3891,"Ġsnake":3892,"Ġsneak":3893,"Ġfreetime":3894,"Ġpracticing":3895,"Ġtraining":3896,"Ġmines":3897,"Ġtomatoes":3898,"Ġrainy":3899,"plan":3900,"Ġdreams":3901,"Ġbreakfast":3902,"travel":3903,"Ġbrand":3904,"Ġnormally":3905,"ologist":3906,"Ġburgers":3907,"Ġcutting":3908,"Ġdecide":3909,"Ġpassionate":3910,"Ġprofessionally":3911,"Ġchristian":3912,"Ġtotal":3913,"Ġpotatoes":3914,"Ġpride":3915,"Ġediting":3916,"Ġemployed":3917,"Ġhurrican":3918,"body":3919,"boarding":3920,"holic":3921,"Ġcommute":3922,"Ġballet":3923,"Ġforeign":3924,"Ġinternship":3925,"Ġcompete":3926,"Ġcleaning":3927,"Ġturns":3928,"Ġincred":3929,"Ġcanadian":3930,"Ġsupport":3931,"Ġbabysitting":3932,"Ġgenres":3933,"Ġocd":3934,"Ġcatching":3935,"Ġcontrol":3936,"Ġbuilding":3937,"Ġbuildings":3938,"Ġfollowing":3939,"books":3940,"Ġmidwest":3941,"Ġpepsi":3942,"Ġnervous":3943,"Ġinsane":3944,"Ġhummus":3945,"Ġvoice":3946,"Ġrelationships":3947,"Ġmike":3948,"Ġmadonna":3949,"everything":3950,"hmmm":3951,"Ġmotiv":3952,"Ġbowl":3953,"Ġentire":3954,"Ġentertain":3955,"Ġboxer":3956,"Ġsalesman":3957,"Ġfires":3958,"Ġlibrarian":3959,"Ġmaryland":3960,"Ġdesigning":3961,"Ġengineering":3962,"Ġferrell":3963,"Ġcows":3964,"Ġcupcakes":3965,"Ġeaster":3966,"Ġathlete":3967,"Ġdiego":3968,"Ġdirector":3969,"Ġtoyota":3970,"Ġgiant":3971,"Ġpuzz":3972,"Ġpicnic":3973,"Ġpacking":3974,"Ġstephen":3975,"Ġaspiring":3976,"Ġrobot":3977,"Ġfloor":3978,"Ġelectric":3979,"Ġpublic":3980,"music":3981,"working":3982,"Ġwrestle":3983,"Ġeasily":3984,"Ġeasier":3985,"Ġconstruction":3986,"Ġsituation":3987,"Ġsituations":3988,"Ġemployees":3989,"Ġmotorcyc":3990,"Ġoriginally":3991,"ibly":3992,"Ġcuisine":3993,"Ġcircus":3994,"orgeous":3995,"Ġmodels":3996,"Ġclosest":3997,"Ġparticular":3998,"Ġgrassho":3999,"Ġinclud":4000,"Ġorganized":4001,"Ġolympian":4002,"after":4003,"Ġsoul":4004,"Ġcooked":4005,"Ġcuba":4006,"Ġpedi":4007,"Ġpackers":4008,"Ġniece":4009,"Ġlimited":4010,"Ġhonest":4011,"Ġsoftware":4012,"Ġruss":4013,"Ġclouds":4014,"Ġspecifically":4015,"Ġflavor":4016,"Ġsunsets":4017,"Ġdepressed":4018,"Ġshirts":4019,"Ġprogrammer":4020,"Ġpsychology":4021,"Ġwhiskey":4022,"Ġsandw":4023,"Ġlucy":4024,"Ġfiance":4025,"Ġcelebr":4026,"Ġtoddler":4027,"Ġdowntime":4028,"Ġscooter":4029,"Ġvaledictorian":4030,"Ġorchestra":4031,"Ġfamiliar":4032,"Ġbruno":4033,"Ġlevine":4034,"Ġfreelance":4035,"Ġminimum":4036,"Ġhamburgers":4037,"Ġbartender":4038,"Ġphilosophy":4039,"Ġvirginia":4040,"family":4041,"mainly":4042,"Ġasthma":4043,"Ġsauce":4044,"Ġnasty":4045,"animals":4046,"Ġhazelnut":4047,"Ġrecommend":4048,"Ġhouses":4049,"Ġenergetic":4050,"Ġscientist":4051,"Ġhilarious":4052,"Ġvintage":4053,"Ġkindergarten":4054,"Ġoverweight":4055,"Ġbroccoli":4056,"Ġmotorcycles":4057,"ao":4058,"bm":4059,"bu":4060,"bar":4061,"bet":4062,"bea":4063,"bel":4064,"bian":4065,"besides":4066,"cat":4067,"con":4068,"corn":4069,"cap":4070,"cker":4071,"ckers":4072,"cooking":4073,"ders":4074,"ek":4075,"even":4076,"foot":4077,"fair":4078,"gas":4079,"gate":4080,"games":4081,"gance":4082,"gles":4083,"gues":4084,"hh":4085,"hr":4086,"ix":4087,"ius":4088,"iam":4089,"iary":4090,"jo":4091,"kiss":4092,"kansas":4093,"light":4094,"lots":4095,"mat":4096,"mac":4097,"ni":4098,"nur":4099,"nam":4100,"nast":4101,"onds":4102,"ople":4103,"ops":4104,"pa":4105,"phe":4106,"pris":4107,"ras":4108,"run":4109,"rink":4110,"round":4111,"rated":4112,"raris":4113,"sw":4114,"sho":4115,"sical":4116,"tan":4117,"tle":4118,"tom":4119,"tired":4120,"uel":4121,"uries":4122,"van":4123,"vill":4124,"vices":4125,"ws":4126,"wal":4127,"want":4128,"water":4129,"wberries":4130,"yikes":4131,"zon":4132,"zard":4133,"zards":4134,"Ġul":4135,"Ġaver":4136,"Ġara":4137,"Ġtx":4138,"Ġtin":4139,"Ġtha":4140,"Ġtic":4141,"Ġtup":4142,"Ġtour":4143,"Ġtables":4144,"Ġire":4145,"Ġibm":4146,"reed":4147,"reep":4148,"Ġmu":4149,"Ġmir":4150,"Ġmatt":4151,"Ġmater":4152,"Ġmugg":4153,"Ġwall":4154,"Ġwis":4155,"Ġwore":4156,"Ġwide":4157,"ined":4158,"inter":4159,"ination":4160,"inarian":4161,"helor":4162,"heads":4163,"healthy":4164,"ham":4165,"hael":4166,"Ġsuck":4167,"Ġsorts":4168,"Ġsamp":4169,"Ġyell":4170,"Ġdu":4171,"Ġdor":4172,"Ġdir":4173,"Ġdest":4174,"Ġdess":4175,"Ġdating":4176,"Ġdude":4177,"Ġdrop":4178,"Ġdouble":4179,"Ġdanger":4180,"vere":4181,"Ġbay":4182,"Ġbon":4183,"Ġbri":4184,"Ġbite":4185,"Ġbud":4186,"Ġbum":4187,"Ġbright":4188,"Ġbunch":4189,"Ġfart":4190,"Ġfred":4191,"Ġfelt":4192,"Ġcd":4193,"Ġcher":4194,"Ġcry":4195,"Ġceo":4196,"Ġcree":4197,"Ġcous":4198,"Ġcred":4199,"Ġcours":4200,"Ġcrit":4201,"Ġcreep":4202,"Ġtoron":4203,"Ġtowards":4204,"ords":4205,"Ġdoll":4206,"Ġdoors":4207,"Ġdoctors":4208,"Ġgay":4209,"Ġgar":4210,"Ġgather":4211,"Ġgables":4212,"hattan":4213,"ndred":4214,"Ġpa":4215,"Ġpn":4216,"Ġpan":4217,"Ġpood":4218,"Ġprom":4219,"Ġpill":4220,"Ġpud":4221,"Ġphy":4222,"Ġpunk":4223,"Ġphar":4224,"Ġpinea":4225,"Ġnone":4226,"Ġnick":4227,"Ġnugg":4228,"Ġnba":4229,"hoe":4230,"hop":4231,"hood":4232,"itude":4233,"ata":4234,"atar":4235,"atory":4236,"Ġlion":4237,"Ġlight":4238,"Ġlifest":4239,"erv":4240,"ery":4241,"ooh":4242,"anas":4243,"anks":4244,"another":4245,"anford":4246,"ankets":4247,"sting":4248,"stood":4249,"step":4250,"stock":4251,"Ġisra":4252,"otion":4253,"otect":4254,"Ġinter":4255,"Ġinside":4256,"once":4257,"iches":4258,"icken":4259,"iculous":4260,"Ġeag":4261,"Ġequ":4262,"Ġhoney":4263,"Ġbee":4264,"Ġbeast":4265,"Ġbeets":4266,"Ġlower":4267,"Ġlocated":4268,"hist":4269,"eds":4270,"edom":4271,"enager":4272,"Ġref":4273,"Ġrequ":4274,"Ġreward":4275,"Ġreview":4276,"ety":4277,"uter":4278,"Ġjen":4279,"Ġjoy":4280,"Ġjud":4281,"Ġonion":4282,"rius":4283,"rise":4284,"riage":4285,"rish":4286,"rizon":4287,"Ġform":4288,"Ġforgot":4289,"alo":4290,"also":4291,"always":4292,"roit":4293,"ross":4294,"rogance":4295,"ask":4296,"ashed":4297,"aska":4298,"allica":4299,"ada":4300,"ading":4301,"Ġhell":4302,"Ġheat":4303,"Ġheck":4304,"leep":4305,"Ġworse":4306,"Ġworms":4307,"Ġworker":4308,"idence":4309,"Ġkic":4310,"Ġkick":4311,"Ġstat":4312,"Ġstare":4313,"Ġsteaks":4314,"Ġstacks":4315,"Ġstanford":4316,"Ġnotice":4317,"Ġfake":4318,"Ġfault":4319,"Ġcos":4320,"Ġcoats":4321,"Ġcoach":4322,"Ġcopper":4323,"ised":4324,"Ġwithin":4325,"Ġthrill":4326,"Ġgoss":4327,"seas":4328,"Ġgoodwill":4329,"Ġatl":4330,"Ġatmo":4331,"Ġabroad":4332,"Ġnephe":4333,"Ġalber":4334,"Ġalger":4335,"Ġplastic":4336,"ntucky":4337,"ckles":4338,"Ġtight":4339,"urbs":4340,"antly":4341,"irit":4342,"iration":4343,"pel":4344,"people":4345,"Ġhits":4346,"Ġsevere":4347,"Ġallie":4348,"Ġallowed":4349,"Ġasia":4350,"arently":4351,"ander":4352,"amed":4353,"ters":4354,"tery":4355,"Ġsci":4356,"Ġscout":4357,"Ġschol":4358,"Ġmuscle":4359,"Ġmushr":4360,"Ġhiding":4361,"hang":4362,"Ġring":4363,"Ġrange":4364,"Ġreads":4365,"Ġmusicals":4366,"Ġvamp":4367,"Ġview":4368,"Ġvictorian":4369,"Ġlottery":4370,"enties":4371,"mps":4372,"mped":4373,"Ġcla":4374,"Ġcloud":4375,"Ġclients":4376,"Ġclutter":4377,"Ġspin":4378,"Ġspot":4379,"Ġspirit":4380,"ulting":4381,"Ġpretend":4382,"Ġeaten":4383,"Ġjose":4384,"abet":4385,"elers":4386,"Ġnoble":4387,"ppy":4388,"pple":4389,"Ġarms":4390,"Ġarrogance":4391,"Ġwilliam":4392,"Ġtrack":4393,"Ġtrail":4394,"Ġmach":4395,"Ġmaint":4396,"Ġmaps":4397,"Ġmaster":4398,"Ġmaiden":4399,"Ġexpress":4400,"Ġexcellent":4401,"been":4402,"umes":4403,"Ġdef":4404,"Ġdeer":4405,"Ġdevel":4406,"Ġcard":4407,"Ġblast":4408,"Ġblankets":4409,"Ġhomework":4410,"Ġmanly":4411,"Ġmango":4412,"Ġmanhattan":4413,"asts":4414,"ista":4415,"istac":4416,"Ġshed":4417,"iled":4418,"ilight":4419,"ilgate":4420,"Ġmark":4421,"Ġbookkeep":4422,"Ġcooks":4423,"Ġguard":4424,"Ġneedles":4425,"Ġtwenties":4426,"Ġnewly":4427,"Ġhelpful":4428,"Ġproject":4429,"Ġcolorful":4430,"Ġ24":4431,"Ġbeagles":4432,"aches":4433,"agree":4434,"Ġstudio":4435,"Ġstudied":4436,"nect":4437,"Ġkentucky":4438,"Ġchew":4439,"Ġcheap":4440,"Ġoffer":4441,"timate":4442,"timore":4443,"timistic":4444,"Ġcompan":4445,"Ġ11":4446,"Ġ15":4447,"Ġracing":4448,"Ġraised":4449,"Ġactual":4450,"zzas":4451,"Ġchronic":4452,"Ġshoe":4453,"ireland":4454,"Ġ300":4455,"Ġowner":4456,"Ġchip":4457,"Ġchill":4458,"ittling":4459,"Ġuh":4460,"Ġugh":4461,"naw":4462,"Ġuncom":4463,"Ġunhealthy":4464,"Ġwond":4465,"Ġtons":4466,"Ġrelated":4467,"Ġrelieve":4468,"Ġspelling":4469,"Ġcounts":4470,"Ġcombo":4471,"Ġcommend":4472,"Ġdads":4473,"Ġoverseas":4474,"ogn":4475,"mentary":4476,"Ġafterwards":4477,"Ġdrummer":4478,"Ġdrunk":4479,"Ġtahoe":4480,"Ġtailgate":4481,"Ġpipe":4482,"Ġpizzas":4483,"Ġarticle":4484,"mom":4485,"Ġteenager":4486,"Ġridiculous":4487,"Ġquake":4488,"Ġpartner":4489,"Ġlevel":4490,"Ġlegs":4491,"Ġreddit":4492,"Ġredheads":4493,"Ġdiabet":4494,"Ġwalmart":4495,"Ġfinds":4496,"Ġpersonal":4497,"Ġflat":4498,"cos":4499,"Ġbikes":4500,"Ġcrafting":4501,"Ġchallen":4502,"icky":4503,"ickle":4504,"Ġgrab":4505,"Ġswimmer":4506,"Ġbreast":4507,"Ġmoves":4508,"Ġdiscovered":4509,"Ġdisagree":4510,"Ġretiring":4511,"Ġfarmer":4512,"Ġweekly":4513,"Ġskills":4514,"Ġwondering":4515,"Ġ42":4516,"Ġ45":4517,"Ġacross":4518,"Ġsirius":4519,"Ġrecogn":4520,"tennis":4521,"Ġwhittling":4522,"Ġworlds":4523,"Ġteachers":4524,"Ġshape":4525,"Ġshakes":4526,"Ġshapes":4527,"Ġleaves":4528,"black":4529,"ycling":4530,"Ġdining":4531,"Ġmonkey":4532,"anced":4533,"Ġtrad":4534,"Ġtrade":4535,"Ġsadly":4536,"Ġsurgeon":4537,"Ġsurround":4538,"Ġperhaps":4539,"Ġpurse":4540,"Ġhundred":4541,"Ġretires":4542,"Ġtyp":4543,"Ġmedal":4544,"Ġchanged":4545,"Ġimpress":4546,"Ġdeser":4547,"Ġbarista":4548,"Ġmothers":4549,"Ġprint":4550,"Ġproof":4551,"Ġprotect":4552,"Ġthankfully":4553,"Ġgrandfather":4554,"Ġgrandkids":4555,"Ġgrandpare":4556,"actly":4557,"Ġapply":4558,"Ġapparently":4559,"Ġtennes":4560,"Ġcape":4561,"Ġcafe":4562,"sphere":4563,"Ġmissed":4564,"Ġcollecting":4565,"Ġ100":4566,"Ġearth":4567,"Ġheading":4568,"Ġprofit":4569,"definitely":4570,"depends":4571,"Ġdavid":4572,"Ġsnack":4573,"Ġhungry":4574,"Ġzumb":4575,"Ġfreedom":4576,"Ġclear":4577,"Ġpetty":4578,"Ġminute":4579,"Ġminnes":4580,"Ġ200":4581,"Ġgraduation":4582,"Ġgraduating":4583,"check":4584,"Ġbraces":4585,"Ġgirlfriends":4586,"Ġidol":4587,"Ġmicro":4588,"Ġmichael":4589,"arship":4590,"Ġamericans":4591,"Ġapart":4592,"Ġdeployed":4593,"Ġbabies":4594,"Ġcourt":4595,"Ġprison":4596,"Ġempire":4597,"Ġproblems":4598,"Ġending":4599,"Ġclubs":4600,"Ġcommit":4601,"Ġpopcorn":4602,"Ġbirds":4603,"Ġforest":4604,"Ġgymnast":4605,"Ġjeans":4606,"Ġweirdest":4607,"Ġgodfather":4608,"Ġmajoring":4609,"Ġcompetitions":4610,"000":4611,"canada":4612,"Ġattitude":4613,"Ġrapids":4614,"Ġwinters":4615,"Ġmatches":4616,"Ġopened":4617,"Ġincome":4618,"Ġvikings":4619,"Ġmaga":4620,"Ġfrustr":4621,"Ġgeorge":4622,"Ġdealing":4623,"Ġcontin":4624,"Ġcontact":4625,"Ġawake":4626,"Ġawhile":4627,"Ġmidn":4628,"Ġcorp":4629,"Ġhumor":4630,"Ġunfortunate":4631,"Ġmile":4632,"Ġsignific":4633,"Ġfashioned":4634,"Ġstaring":4635,"minal":4636,"Ġfigures":4637,"Ġcrisp":4638,"honest":4639,"Ġorganic":4640,"Ġboxers":4641,"Ġdivorce":4642,"two":4643,"Ġairplan":4644,"Ġterri":4645,"Ġdistance":4646,"Ġbarefoot":4647,"Ġjugg":4648,"Ġforgetful":4649,"Ġknee":4650,"Ġcharacters":4651,"Ġsundays":4652,"Ġromance":4653,"Ġpigs":4654,"Ġinvite":4655,"Ġcollar":4656,"Ġcollie":4657,"Ġprogram":4658,"Ġpositive":4659,"Ġviolinist":4660,"listen":4661,"Ġversion":4662,"Ġwindy":4663,"Ġdirection":4664,"Ġbachelor":4665,"Ġgaming":4666,"Ġgamer":4667,"Ġpita":4668,"Ġpicked":4669,"Ġangel":4670,"Ġrule":4671,"Ġexplain":4672,"Ġrobots":4673,"Ġfinishing":4674,"Ġpublisher":4675,"bitious":4676,"Ġwrestling":4677,"Ġbingo":4678,"Ġfriday":4679,"Ġcash":4680,"Ġcasino":4681,"Ġresour":4682,"Ġkarate":4683,"Ġkarao":4684,"Ġroutine":4685,"Ġconstantly":4686,"Ġposting":4687,"Ġoriginal":4688,"Ġpumpkin":4689,"exactly":4690,"Ġcultures":4691,"Ġthemed":4692,"Ġnuts":4693,"Ġjunna":4694,"Ġcondo":4695,"Ġcondition":4696,"Ġattending":4697,"Ġmarathons":4698,"Ġparticip":4699,"Ġpleasure":4700,"Ġorganization":4701,"iences":4702,"Ġavatar":4703,"Ġtitan":4704,"Ġmenu":4705,"Ġmartial":4706,"harry":4707,"Ġdetroit":4708,"Ġoptimistic":4709,"Ġpalms":4710,"Ġcostumes":4711,"Ġmodern":4712,"Ġsprite":4713,"Ġmacar":4714,"Ġshooting":4715,"Ġdiamond":4716,"Ġdiamonds":4717,"computer":4718,"Ġcomedies":4719,"Ġcomedian":4720,"Ġmeditation":4721,"Ġdecorate":4722,"wonderful":4723,"Ġtrophies":4724,"Ġideas":4725,"Ġmerma":4726,"Ġmillion":4727,"Ġsilver":4728,"Ġcrowds":4729,"Ġcivic":4730,"orgia":4731,"Ġgifted":4732,"Ġholiday":4733,"Ġremodel":4734,"Ġfortune":4735,"Ġalternative":4736,"Ġsexy":4737,"Ġpreference":4738,"Ġintrovert":4739,"because":4740,"Ġventure":4741,"Ġsmoothie":4742,"Ġpiercings":4743,"Ġquickly":4744,"Ġadventure":4745,"Ġskateboarding":4746,"Ġperform":4747,"Ġpurchase":4748,"Ġ2016":4749,"Ġattractive":4750,"Ġpepperoni":4751,"Ġauditioned":4752,"Ġauthor":4753,"Ġjournalist":4754,"Ġtutorials":4755,"Ġchihuahua":4756,"150":4757,"chocolate":4758,"sadly":4759,"understood":4760,"Ġtarget":4761,"Ġirma":4762,"Ġdenver":4763,"Ġcandles":4764,"llerbl":4765,"Ġobsess":4766,"Ġnachos":4767,"Ġlibre":4768,"Ġjesus":4769,"Ġjello":4770,"Ġwebsites":4771,"Ġkayaking":4772,"Ġstains":4773,"rainbow":4774,"Ġgovernment":4775,"Ġalligator":4776,"Ġvariety":4777,"Ġsplit":4778,"Ġarchery":4779,"Ġargentina":4780,"Ġexpected":4781,"Ġproducts":4782,"Ġufc":4783,"Ġunicycle":4784,"Ġpossible":4785,"Ġfinancial":4786,"traveling":4787,"Ġhurricane":4788,"Ġincredible":4789,"Ġmotivated":4790,"Ġpuzzles":4791,"Ġincluding":4792,"Ġrussian":4793,"Ġsandwiches":4794,"ville":4795,"walking":4796,"Ġultimate":4797,"Ġaverage":4798,"Ġtupac":4799,"Ġireland":4800,"Ġmirror":4801,"Ġwishes":4802,"Ġsamples":4803,"Ġdirty":4804,"Ġdangerous":4805,"Ġcreek":4806,"Ġcousins":4807,"Ġcredit":4808,"Ġcourses":4809,"Ġtoronto":4810,"Ġpudding":4811,"Ġphysical":4812,"Ġpineapple":4813,"Ġnickn":4814,"Ġnuggets":4815,"Ġlifestyle":4816,"Ġisrael":4817,"Ġrewarding":4818,"Ġcopperfield":4819,"Ġgossip":4820,"Ġatmosphere":4821,"Ġalbert":4822,"Ġalgeria":4823,"Ġscholarship":4824,"Ġmushroo":4825,"Ġmangoes":4826,"istachio":4827,"Ġuncomfortable":4828,"Ġgrandparents":4829,"Ġtennessee":4830,"Ġzumba":4831,"Ġminnesota":4832,"Ġsignificant":4833,"Ġairplanes":4834,"Ġbachelors":4835,"Ġkaraoke":4836,"21":4837,"27":4838,"28":4839,"80":4840,"86":4841,"aving":4842,"away":4843,"akes":4844,"aire":4845,"ahahah":4846,"aholic":4847,"boy":4848,"bain":4849,"bute":4850,"bull":4851,"bulous":4852,"cou":4853,"cut":4854,"cri":4855,"could":4856,"cur":4857,"cies":4858,"cil":4859,"cise":4860,"cons":4861,"cket":4862,"cars":4863,"cense":4864,"candy":4865,"cycle":4866,"cashier":4867,"ded":4868,"dri":4869,"dis":4870,"dress":4871,"dude":4872,"drink":4873,"ev":4874,"ey":4875,"eve":4876,"eks":4877,"eating":4878,"ealing":4879,"fing":4880,"fit":4881,"far":4882,"fall":4883,"from":4884,"fell":4885,"fty":4886,"five":4887,"fits":4888,"fron":4889,"fashi":4890,"fied":4891,"gic":4892,"gust":4893,"gir":4894,"gies":4895,"give":4896,"gby":4897,"glad":4898,"gorgeous":4899,"horses":4900,"hville":4901,"ira":4902,"ife":4903,"ium":4904,"ique":4905,"js":4906,"jit":4907,"japan":4908,"john":4909,"kin":4910,"kne":4911,"lan":4912,"lake":4913,"look":4914,"long":4915,"lif":4916,"luck":4917,"little":4918,"lasagna":4919,"lvan":4920,"mi":4921,"mon":4922,"mic":4923,"mad":4924,"mis":4925,"make":4926,"mies":4927,"mand":4928,"mans":4929,"made":4930,"mory":4931,"mca":4932,"nor":4933,"nit":4934,"none":4935,"nia":4936,"nature":4937,"ncil":4938,"oes":4939,"ost":4940,"oal":4941,"oors":4942,"ober":4943,"oming":4944,"oped":4945,"oev":4946,"pg":4947,"par":4948,"phi":4949,"pet":4950,"pher":4951,"pol":4952,"phan":4953,"pie":4954,"pting":4955,"past":4956,"pain":4957,"pard":4958,"pets":4959,"pac":4960,"ples":4961,"pub":4962,"peace":4963,"ports":4964,"pays":4965,"rd":4966,"rt":4967,"rus":4968,"rup":4969,"rate":4970,"rings":4971,"rition":4972,"rina":4973,"sur":4974,"sent":4975,"sary":4976,"sick":4977,"sbur":4978,"swer":4979,"suit":4980,"spel":4981,"tr":4982,"tre":4983,"tur":4984,"tles":4985,"tling":4986,"tically":4987,"tzel":4988,"uar":4989,"ule":4990,"uent":4991,"uary":4992,"ubby":4993,"vin":4994,"vies":4995,"vors":4996,"video":4997,"wood":4998,"wind":4999,"wish":5000,"wks":5001,"wau":5002,"wise":5003,"wife":5004,"xual":5005,"xford":5006,"xiety":5007,"yu":5008,"ying":5009,"yap":5010,"yond":5011,"yellow":5012,"ylvan":5013,"yrus":5014,"zing":5015,"zac":5016,"ziness":5017,"Ġum":5018,"Ġult":5019,"Ġ000":5020,"Ġale":5021,"Ġaust":5022,"Ġaun":5023,"Ġaster":5024,"Ġarizon":5025,"Ġtat":5026,"Ġtay":5027,"Ġted":5028,"Ġtable":5029,"Ġtouch":5030,"Ġtroy":5031,"Ġtanks":5032,"Ġtask":5033,"Ġtickle":5034,"rel":5035,"reo":5036,"Ġmd":5037,"Ġmut":5038,"Ġmur":5039,"Ġmink":5040,"Ġmig":5041,"Ġmia":5042,"Ġmuff":5043,"Ġmerc":5044,"Ġmunch":5045,"Ġmama":5046,"Ġmrs":5047,"Ġmashed":5048,"Ġwid":5049,"Ġwake":5050,"Ġwished":5051,"Ġwhist":5052,"ining":5053,"inion":5054,"ints":5055,"inator":5056,"innam":5057,"hent":5058,"help":5059,"halloween":5060,"hawaii":5061,"happy":5062,"hawks":5063,"Ġses":5064,"Ġsat":5065,"Ġsch":5066,"Ġsally":5067,"Ġsould":5068,"Ġsite":5069,"Ġswell":5070,"Ġsaus":5071,"Ġsandy":5072,"Ġsanta":5073,"Ġyr":5074,"Ġyor":5075,"Ġyum":5076,"Ġymca":5077,"Ġdj":5078,"Ġds":5079,"Ġding":5080,"Ġdun":5081,"Ġdea":5082,"Ġdies":5083,"Ġdig":5084,"Ġdum":5085,"Ġdwell":5086,"Ġdru":5087,"Ġdump":5088,"Ġdates":5089,"Ġdumb":5090,"Ġdata":5091,"Ġlou":5092,"Ġlin":5093,"Ġlat":5094,"Ġloo":5095,"Ġlen":5096,"Ġlant":5097,"Ġlind":5098,"Ġlam":5099,"Ġlel":5100,"Ġlau":5101,"Ġlumber":5102,"velling":5103,"Ġyouth":5104,"Ġbs":5105,"Ġbt":5106,"Ġbor":5107,"Ġboo":5108,"Ġbot":5109,"Ġbis":5110,"Ġbreat":5111,"Ġbone":5112,"Ġbie":5113,"Ġbage":5114,"Ġbummer":5115,"Ġbones":5116,"Ġbtw":5117,"Ġfill":5118,"Ġfif":5119,"Ġfought":5120,"Ġfellow":5121,"inger":5122,"Ġcs":5123,"Ġcen":5124,"Ġcind":5125,"Ġcure":5126,"Ġcong":5127,"Ġcul":5128,"Ġcaus":5129,"Ġcaught":5130,"Ġcds":5131,"Ġcork":5132,"Ġcornia":5133,"Ġcycle":5134,"Ġcities":5135,"Ġcycling":5136,"Ġcyrus":5137,"Ġcinnam":5138,"Ġtoe":5139,"Ġtor":5140,"Ġtoes":5141,"Ġtong":5142,"Ġtooth":5143,"Ġtower":5144,"orke":5145,"orical":5146,"Ġdober":5147,"Ġdoable":5148,"Ġdomin":5149,"Ġdodge":5150,"Ġgf":5151,"Ġgho":5152,"Ġgri":5153,"Ġgal":5154,"Ġgall":5155,"Ġgear":5156,"Ġgum":5157,"Ġgain":5158,"Ġgorgeous":5159,"Ġginger":5160,"lla":5161,"lled":5162,"llfish":5163,"ndry":5164,"ndane":5165,"Ġoct":5166,"Ġowe":5167,"Ġopt":5168,"Ġoven":5169,"Ġovo":5170,"Ġoreg":5171,"Ġoxford":5172,"Ġoyu":5173,"Ġoreo":5174,"Ġtheat":5175,"eside":5176,"esfashi":5177,"kee":5178,"Ġpand":5179,"Ġpear":5180,"Ġpne":5181,"Ġpitt":5182,"Ġpull":5183,"Ġpork":5184,"Ġpath":5185,"Ġpics":5186,"Ġppl":5187,"Ġpunch":5188,"Ġpages":5189,"Ġpants":5190,"Ġpistachio":5191,"Ġpjs":5192,"Ġna":5193,"Ġnc":5194,"Ġnan":5195,"Ġnar":5196,"Ġnic":5197,"Ġnag":5198,"Ġnap":5199,"hosp":5200,"homa":5201,"hobic":5202,"itter":5203,"itish":5204,"itty":5205,"itals":5206,"itched":5207,"atible":5208,"atric":5209,"Ġliking":5210,"Ġlifting":5211,"Ġlizard":5212,"Ġlicense":5213,"era":5214,"ern":5215,"erry":5216,"erts":5217,"erina":5218,"oop":5219,"oooo":5220,"ooth":5221,"anor":5222,"str":5223,"stit":5224,"star":5225,"stud":5226,"stem":5227,"stealing":5228,"stoev":5229,"Ġisland":5230,"men":5231,"arity":5232,"Ġinse":5233,"Ġinher":5234,"onia":5235,"ician":5236,"ictim":5237,"Ġec":5238,"Ġeffe":5239,"Ġhomo":5240,"Ġhomies":5241,"Ġareas":5242,"Ġbees":5243,"Ġbear":5244,"Ġbeet":5245,"Ġbeers":5246,"Ġbene":5247,"Ġbelly":5248,"Ġbeards":5249,"Ġbegin":5250,"Ġbeyond":5251,"Ġloss":5252,"Ġloads":5253,"Ġlocks":5254,"Ġlondon":5255,"hib":5256,"hift":5257,"hirt":5258,"edes":5259,"eden":5260,"Ġsod":5261,"Ġsoci":5262,"Ġsolid":5263,"enjoy":5264,"enna":5265,"ences":5266,"encies":5267,"Ġresp":5268,"Ġreach":5269,"Ġrepre":5270,"Ġrecept":5271,"Ġreasons":5272,"Ġambitious":5273,"eton":5274,"etah":5275,"etings":5276,"uth":5277,"utiful":5278,"Ġjim":5279,"Ġjack":5280,"Ġjag":5281,"rior":5282,"riate":5283,"rious":5284,"rift":5285,"Ġforce":5286,"Ġformer":5287,"alabama":5288,"rome":5289,"rollerbl":5290,"asion":5291,"ush":5292,"usually":5293,"Ġmember":5294,"Ġmemb":5295,"Ġmemory":5296,"alley":5297,"Ġanne":5298,"Ġanger":5299,"Ġanxious":5300,"Ġanswer":5301,"Ġanxiety":5302,"Ġwhatever":5303,"Ġheh":5304,"Ġheal":5305,"Ġheater":5306,"Ġhectic":5307,"Ġhowre":5308,"ustle":5309,"ustrop":5310,"Ġweak":5311,"Ġweigh":5312,"unfortun":5313,"unities":5314,"Ġworl":5315,"Ġworry":5316,"Ġkra":5317,"Ġkur":5318,"Ġkate":5319,"Ġkills":5320,"Ġkale":5321,"Ġkoal":5322,"Ġstro":5323,"Ġstream":5324,"Ġstair":5325,"Ġstubb":5326,"Ġbutton":5327,"Ġnotes":5328,"rage":5329,"racus":5330,"Ġfawn":5331,"Ġfaves":5332,"Ġfabulous":5333,"Ġcod":5334,"Ġcoz":5335,"Ġcope":5336,"Ġcoord":5337,"Ġcoinc":5338,"Ġcobain":5339,"isco":5340,"Ġworkout":5341,"Ġthreat":5342,"Ġthumb":5343,"Ġgospel":5344,"eagues":5345,"sell":5346,"seems":5347,"seattle":5348,"sexual":5349,"Ġjustice":5350,"Ġmoped":5351,"Ġgoodby":5352,"Ġneither":5353,"Ġnecess":5354,"Ġtool":5355,"Ġabouts":5356,"Ġalb":5357,"Ġalf":5358,"Ġalien":5359,"Ġplat":5360,"Ġplot":5361,"Ġplus":5362,"Ġplant":5363,"aker":5364,"oli":5365,"oline":5366,"Ġanyways":5367,"Ġanytime":5368,"ryan":5369,"Ġtil":5370,"Ġtip":5371,"Ġtill":5372,"Ġtied":5373,"Ġtimber":5374,"Ġtiring":5375,"ural":5376,"urity":5377,"Ġsomebody":5378,"Ġwhether":5379,"ctuary":5380,"Ġfavorit":5381,"Ġhy":5382,"Ġhound":5383,"Ġhustle":5384,"ionist":5385,"Ġseal":5386,"Ġsears":5387,"Ġsection":5388,"Ġsearch":5389,"Ġsevent":5390,"Ġseasons":5391,"Ġseeds":5392,"Ġplaylist":5393,"yesses":5394,"Ġencount":5395,"Ġencyc":5396,"Ġenem":5397,"Ġencou":5398,"Ġdonut":5399,"iest":5400,"Ġfunn":5401,"Ġaspect":5402,"Ġasleep":5403,"aren":5404,"dom":5405,"dostoev":5406,"imes":5407,"nov":5408,"nold":5409,"noxious":5410,"amel":5411,"teras":5412,"terday":5413,"Ġscot":5414,"Ġscub":5415,"Ġsched":5416,"Ġscram":5417,"Ġhipp":5418,"Ġhiked":5419,"Ġhiring":5420,"amn":5421,"hange":5422,"Ġrc":5423,"Ġrv":5424,"Ġrice":5425,"Ġrings":5426,"Ġrico":5427,"Ġrpg":5428,"Ġrural":5429,"Ġupgr":5430,"Ġcoolest":5431,"Ġvs":5432,"Ġvv":5433,"Ġvice":5434,"Ġvict":5435,"Ġvictim":5436,"Ġvalley":5437,"Ġdaycare":5438,"soft":5439,"ention":5440,"ential":5441,"Ġwanting":5442,"Ġclubb":5443,"Ġwaters":5444,"Ġusual":5445,"Ġknot":5446,"howdy":5447,"Ġspi":5448,"Ġspar":5449,"Ġspac":5450,"Ġspilled":5451,"ula":5452,"ulf":5453,"ief":5454,"Ġpreschool":5455,"Ġprepare":5456,"Ġprecious":5457,"Ġprepar":5458,"Ġpretzel":5459,"Ġjoking":5460,"Ġorland":5461,"Ġorient":5462,"Ġorders":5463,"Ġorphan":5464,"about":5465,"ablet":5466,"Ġknown":5467,"Ġknows":5468,"ela":5469,"elve":5470,"Ġnoises":5471,"Ġschooling":5472,"ppers":5473,"pples":5474,"Ġriver":5475,"Ġribs":5476,"Ġarrow":5477,"Ġarkansas":5478,"things":5479,"Ġwilling":5480,"Ġmaker":5481,"Ġcattle":5482,"Ġtracks":5483,"please":5484,"Ġmak":5485,"Ġmax":5486,"Ġmaids":5487,"ortunities":5488,"Ġexist":5489,"bbles":5490,"beat":5491,"beats":5492,"beque":5493,"Ġteams":5494,"veland":5495,"umm":5496,"uming":5497,"umonia":5498,"Ġdeals":5499,"Ġdepend":5500,"Ġdews":5501,"Ġdemand":5502,"Ġcaring":5503,"Ġcarry":5504,"Ġcaract":5505,"Ġcaramel":5506,"Ġhomemade":5507,"Ġwherever":5508,"ivered":5509,"Ġbeta":5510,"lord":5511,"ister":5512,"Ġshelf":5513,"Ġshellfish":5514,"ilt":5515,"ilroad":5516,"Ġmommy":5517,"Ġmarry":5518,"Ġmarriage":5519,"Ġshouldn":5520,"Ġolds":5521,"Ġoldies":5522,"Ġtwitch":5523,"Ġtwilight":5524,"Ġtwelve":5525,"ational":5526,"Ġokra":5527,"Ġokla":5528,"Ġprozac":5529,"ssibly":5530,"coolio":5531,"Ġpeoples":5532,"Ġvegas":5533,"cials":5534,"Ġ25":5535,"ache":5536,"account":5537,"Ġbecoming":5538,"Ġrod":5539,"Ġrow":5540,"Ġrome":5541,"Ġrode":5542,"Ġroaches":5543,"oons":5544,"Ġhopeless":5545,"aging":5546,"aged":5547,"agra":5548,"agreed":5549,"Ġswear":5550,"Ġsword":5551,"Ġswift":5552,"Ġsurely":5553,"Ġstudies":5554,"new":5555,"Ġrights":5556,"Ġkept":5557,"Ġketo":5558,"Ġcheated":5559,"Ġcherish":5560,"Ġcheeks":5561,"Ġcheetah":5562,"Ġharsh":5563,"Ġharvest":5564,"Ġoffers":5565,"Ġoffense":5566,"Ġeverest":5567,"Ġcompare":5568,"Ġcomparis":5569,"Ġcompatible":5570,"Ġ17":5571,"Ġsmarter":5572,"Ġsmooth":5573,"Ġrand":5574,"Ġraced":5575,"Ġraven":5576,"Ġraising":5577,"Ġravi":5578,"Ġrailroad":5579,"Ġconcent":5580,"Ġconvo":5581,"Ġconnect":5582,"queen":5583,"Ġaffair":5584,"Ġherding":5585,"Ġchubby":5586,"Ġchrome":5587,"balls":5588,"Ġshot":5589,"Ġshore":5590,"Ġshops":5591,"Ġbuses":5592,"Ġ32":5593,"Ġ33":5594,"Ġ386":5595,"Ġowned":5596,"Ġotherwise":5597,"Ġchips":5598,"Ġchilly":5599,"Ġagit":5600,"ittles":5601,"Ġhearing":5602,"Ġwhos":5603,"Ġwhose":5604,"getting":5605,"Ġclassy":5606,"Ġwritten":5607,"whel":5608,"Ġbomb":5609,"Ġunique":5610,"rence":5611,"Ġbrat":5612,"Ġbrought":5613,"Ġbrunch":5614,"Ġbritish":5615,"Ġcares":5616,"Ġinterests":5617,"Ġdraft":5618,"Ġdramat":5619,"Ġrelief":5620,"Ġcomb":5621,"Ġcommer":5622,"Ġcomfortable":5623,"Ġoverrated":5624,"Ġoverwhel":5625,"Ġpond":5626,"Ġpops":5627,"Ġpoints":5628,"Ġfeels":5629,"Ġhairdress":5630,"Ġhusky":5631,"Ġbye":5632,"Ġdrank":5633,"Ġhusbands":5634,"Ġlapt":5635,"Ġsporting":5636,"Ġmustache":5637,"Ġsaf":5638,"Ġsafe":5639,"aughter":5640,"Ġtap":5641,"rently":5642,"Ġbuff":5643,"Ġbugs":5644,"Ġbulls":5645,"Ġnightlo":5646,"Ġnighttime":5647,"Ġartwork":5648,"movies":5649,"Ġhatteras":5650,"Ġtender":5651,"Ġtext":5652,"Ġhighlight":5653,"Ġrides":5654,"Ġrider":5655,"Ġdriven":5656,"Ġquiz":5657,"Ġquail":5658,"Ġquitting":5659,"Ġquality":5660,"Ġquarter":5661,"Ġparts":5662,"Ġwilder":5663,"Ġleon":5664,"Ġlead":5665,"Ġleela":5666,"Ġreduit":5667,"Ġtalks":5668,"Ġbasic":5669,"Ġhappiness":5670,"Ġwalker":5671,"Ġfinding":5672,"Ġpersonality":5673,"Ġmeatlo":5674,"Ġmeatballs":5675,"Ġflood":5676,"Ġflight":5677,"Ġfluent":5678,"ahh":5679,"coats":5680,"coming":5681,"Ġyesterday":5682,"Ġcrap":5683,"Ġcrave":5684,"Ġcrabby":5685,"Ġcracked":5686,"Ġcramped":5687,"gging":5688,"Ġfinal":5689,"Ġchain":5690,"Ġchamp":5691,"Ġchasing":5692,"Ġchop":5693,"Ġchores":5694,"Ġgrav":5695,"Ġgrape":5696,"Ġgraph":5697,"Ġswimsuit":5698,"ptain":5699,"Ġesca":5700,"Ġescap":5701,"Ġadm":5702,"Ġdishonest":5703,"Ġfarming":5704,"Ġfarmers":5705,"Ġrocks":5706,"iments":5707,"anges":5708,"anyway":5709,"azing":5710,"Ġskill":5711,"Ġskunk":5712,"Ġskittles":5713,"onsense":5714,"onsib":5715,"onshop":5716,"issants":5717,"Ġachie":5718,"Ġcurly":5719,"Ġcurse":5720,"Ġcursive":5721,"Ġrecycle":5722,"Ġrecord":5723,"Ġsleeve":5724,"Ġparamed":5725,"atshirt":5726,"Ġhousewife":5727,"Ġblackjack":5728,"Ġshallow":5729,"Ġshade":5730,"Ġleaving":5731,"Ġpreferably":5732,"Ġsmaller":5733,"Ġsupermar":5734,"Ġsleepy":5735,"loped":5736,"london":5737,"Ġmonster":5738,"Ġmetallica":5739,"ancisco":5740,"Ġengaged":5741,"Ġsweatshirt":5742,"Ġtrout":5743,"Ġtricky":5744,"Ġtruth":5745,"Ġsurpris":5746,"Ġperk":5747,"Ġperry":5748,"Ġperks":5749,"Ġhubby":5750,"Ġtypes":5751,"Ġmedical":5752,"Ġmedium":5753,"Ġchanger":5754,"Ġchances":5755,"Ġunderstandable":5756,"Ġdesk":5757,"Ġdesp":5758,"Ġbarb":5759,"Ġbarbie":5760,"Ġbarbeque":5761,"Ġgiven":5762,"color":5763,"Ġprinc":5764,"Ġfaster":5765,"Ġvisiting":5766,"pense":5767,"Ġsalt":5768,"Ġsalads":5769,"Ġsalmon":5770,"Ġexchange":5771,"Ġgrandpa":5772,"Ġtenth":5773,"Ġcave":5774,"Ġcaptain":5775,"Ġstuffed":5776,"Ġbuys":5777,"Ġmissing":5778,"Ġmission":5779,"Ġmilo":5780,"Ġmilwau":5781,"Ġbeliefs":5782,"Ġsocal":5783,"Ġnearby":5784,"Ġdifference":5785,"form":5786,"Ġindoors":5787,"Ġearrings":5788,"Ġmeaning":5789,"Ġheads":5790,"Ġcheesebur":5791,"Ġstopping":5792,"Ġstoma":5793,"Ġplanes":5794,"Ġplanet":5795,"makes":5796,"Ġsnorke":5797,"Ġsnoop":5798,"Ġhunger":5799,"Ġconcerning":5800,"Ġhappening":5801,"california":5802,"Ġze":5803,"Ġzone":5804,"Ġslack":5805,"Ġslots":5806,"Ġturf":5807,"Ġturning":5808,"Ġturtles":5809,"Ġletter":5810,"Ġbald":5811,"Ġfreaking":5812,"Ġfreckles":5813,"Ġcouncil":5814,"Ġcleveland":5815,"Ġpractical":5816,"loyments":5817,"single":5818,"Ġ600":5819,"Ġserving":5820,"Ġservices":5821,"Ġfalls":5822,"Ġfullest":5823,"erto":5824,"someone":5825,"something":5826,"somedays":5827,"Ġexercising":5828,"Ġraincoats":5829,"Ġaccent":5830,"Ġimaging":5831,"Ġimaginary":5832,"Ġimagination":5833,"aching":5834,"ized":5835,"Ġ70":5836,"Ġ75":5837,"Ġsunsh":5838,"Ġsunfl":5839,"Ġsunrise":5840,"Ġsweetie":5841,"tible":5842,"tracy":5843,"Ġbrag":5844,"Ġbrains":5845,"Ġstrict":5846,"Ġthrone":5847,"Ġboyfriends":5848,"Ġtastes":5849,"Ġburt":5850,"Ġcamper":5851,"Ġplaced":5852,"Ġdecent":5853,"Ġsmokers":5854,"Ġapolog":5855,"Ġdepressive":5856,"Ġdeployments":5857,"Ġdances":5858,"Ġpotential":5859,"Ġeditor":5860,"Ġempat":5861,"Ġempty":5862,"Ġhurry":5863,"amaica":5864,"Ġchecking":5865,"bob":5866,"iversary":5867,"Ġdeli":5868,"Ġdelivered":5869,"Ġputting":5870,"Ġinstructor":5871,"Ġtattooed":5872,"Ġtallest":5873,"Ġballs":5874,"Ġballerina":5875,"Ġforeman":5876,"Ġpastimes":5877,"Ġinternational":5878,"Ġstresses":5879,"Ġstressed":5880,"Ġoutdoor":5881,"Ġcompeting":5882,"Ġsmarty":5883,"Ġcleaned":5884,"Ġsuburbs":5885,"Ġsubstit":5886,"Ġdying":5887,"Ġdylan":5888,"Ġattic":5889,"Ġattack":5890,"Ġattention":5891,"Ġpartying":5892,"Ġdarker":5893,"Ġcarts":5894,"Ġopening":5895,"Ġweightlif":5896,"Ġvienna":5897,"Ġmagical":5898,"Ġconscious":5899,"Ġconsulting":5900,"Ġflower":5901,"Ġpaintings":5902,"telling":5903,"Ġfrat":5904,"Ġfrancisco":5905,"Ġfights":5906,"Ġgeek":5907,"Ġgeorgia":5908,"Ġgener":5909,"Ġgeneral":5910,"Ġheartbeats":5911,"Ġroofing":5912,"ularly":5913,"Ġdealt":5914,"Ġcontest":5915,"Ġcontract":5916,"Ġbuilder":5917,"Ġcharity":5918,"Ġwoodstock":5919,"Ġcroissants":5920,"Ġcreating":5921,"Ġcruel":5922,"Ġpew":5923,"Ġpeed":5924,"Ġhanded":5925,"Ġremote":5926,"Ġvoc":5927,"Ġartistic":5928,"Ġaddiction":5929,"Ġslower":5930,"chair":5931,"guing":5932,"guard":5933,"Ġmiley":5934,"Ġwarrior":5935,"Ġsignal":5936,"Ġfantastic":5937,"Ġelementary":5938,"ropriate":5939,"Ġstarbucks":5940,"Ġfruitarian":5941,"hmmmm":5942,"mark":5943,"married":5944,"mario":5945,"Ġsystem":5946,"Ġsyracus":5947,"Ġsettling":5948,"Ġdanes":5949,"Ġdanie":5950,"Ġfilm":5951,"Ġentry":5952,"Ġstanding":5953,"Ġstandards":5954,"Ġsecurity":5955,"Ġboxes":5956,"Ġmustangs":5957,"Ġdesigners":5958,"chill":5959,"Ġauditions":5960,"Ġsuspense":5961,"Ġdressing":5962,"Ġdresses":5963,"Ġfireman":5964,"Ġpublish":5965,"Ġkilling":5966,"Ġexperiences":5967,"Ġexperiments":5968,"Ġoccasion":5969,"gotcha":5970,"Ġsimon":5971,"Ġlanding":5972,"Ġlandlord":5973,"Ġferraris":5974,"Ġcowor":5975,"Ġcowell":5976,"Ġgrilling":5977,"Ġpiece":5978,"Ġstrawberries":5979,"Ġcolleagues":5980,"Ġassess":5981,"Ġhistorical":5982,"Ġroadie":5983,"Ġposse":5984,"Ġphotographer":5985,"Ġvera":5986,"Ġverb":5987,"Ġsmells":5988,"Ġsara":5989,"Ġdrove":5990,"Ġdirect":5991,"Ġfurther":5992,"Ġfurnit":5993,"Ġgasoline":5994,"Ġpugs":5995,"Ġpuerto":5996,"Ġpitbull":5997,"Ġpatty":5998,"Ġpatients":5999,"Ġpackages":6000,"Ġmysterious":6001,"Ġloser":6002,"Ġjohnny":6003,"Ġmechanical":6004,"Ġanniversary":6005,"Ġsteps":6006,"Ġcolour":6007,"Ġruined":6008,"Ġrugby":6009,"Ġtalented":6010,"Ġpublished":6011,"Ġneighbors":6012,"wait":6013,"Ġauthent":6014,"Ġfridays":6015,"Ġobject":6016,"Ġobvious":6017,"Ġobnoxious":6018,"Ġopportunities":6019,"Ġemt":6020,"Ġemotion":6021,"Ġrespect":6022,"Ġrecipe":6023,"Ġkarma":6024,"Ġstorm":6025,"Ġwheelchair":6026,"Ġroute":6027,"Ġroutes":6028,"Ġmusicians":6029,"Ġdisability":6030,"Ġemployer":6031,"Ġmotorcycle":6032,"Ġsecretly":6033,"duced":6034,"eem":6035,"excellent":6036,"nsylvan":6037,"truck":6038,"Ġestate":6039,"Ġesteem":6040,"Ġiguanas":6041,"Ġsanctuary":6042,"Ġsaturdays":6043,"Ġfronnia":6044,"Ġcuz":6045,"Ġcircle":6046,"Ġcongratulations":6047,"Ġpickle":6048,"Ġnutrition":6049,"Ġhandsome":6050,"Ġeyel":6051,"Ġjunior":6052,"Ġjammin":6053,"Ġkingdom":6054,"Ġkaty":6055,"Ġkatie":6056,"Ġkatrina":6057,"Ġcloset":6058,"Ġquestions":6059,"Ġprayers":6060,"Ġpleasant":6061,"Ġmatters":6062,"Ġinclude":6063,"Ġpeanuts":6064,"Ġannoyed":6065,"Ġradiohead":6066,"Ġneighborhood":6067,"Ġresearching":6068,"Ġolympic":6069,"country":6070,"Ġurs":6071,"Ġtitle":6072,"Ġmartius":6073,"Ġsquare":6074,"Ġsquats":6075,"Ġbalance":6076,"Ġbaltimore":6077,"Ġbalanced":6078,"Ġfund":6079,"Ġcaps":6080,"Ġopinion":6081,"Ġpowerful":6082,"Ġnieces":6083,"Ġlimits":6084,"Ġsoftball":6085,"Ġjumped":6086,"Ġasians":6087,"Ġrush":6088,"Ġcloudy":6089,"Ġfeeds":6090,"Ġfeeding":6091,"Ġveteran":6092,"Ġveterinary":6093,"Ġveterinarian":6094,"Ġspecific":6095,"Ġflavors":6096,"okokokok":6097,"Ġtransl":6098,"Ġmeditating":6099,"Ġsunset":6100,"Ġsweethearts":6101,"Ġshirt":6102,"Ġprogramming":6103,"Ġpsychologist":6104,"ground":6105,"trying":6106,"washed":6107,"Ġideal":6108,"Ġmistake":6109,"Ġsentence":6110,"Ġsorta":6111,"Ġsource":6112,"Ġbicycle":6113,"Ġbillie":6114,"Ġcabin":6115,"Ġcrowded":6116,"Ġcivil":6117,"Ġpennsylvan":6118,"Ġnike":6119,"Ġnipples":6120,"Ġinjured":6121,"Ġinjuries":6122,"Ġeighties":6123,"Ġholidays":6124,"Ġremoved":6125,"Ġjersey":6126,"Ġjessica":6127,"Ġkittens":6128,"Ġstealing":6129,"Ġsteelers":6130,"Ġstrive":6131,"Ġgolden":6132,"Ġalternate":6133,"Ġsending":6134,"Ġscene":6135,"Ġscenes":6136,"Ġspoken":6137,"Ġpreferences":6138,"Ġintroduced":6139,"Ġmanagement":6140,"Ġsmoothies":6141,"Ġrarely":6142,"Ġactivities":6143,"Ġsavage":6144,"Ġtaxi":6145,"Ġpiercing":6146,"Ġsuede":6147,"Ġsuggestions":6148,"Ġgrandmothers":6149,"Ġbrainwashed":6150,"Ġcampus":6151,"Ġcommunist":6152,"Ġinvolve":6153,"Ġinvolved":6154,"Ġexplorer":6155,"Ġauthors":6156,"Ġmentioned":6157,"Ġconfusing":6158,"Ġconfused":6159,"Ġthird":6160,"Ġthirty":6161,"Ġenvironmental":6162,"Ġchihuahuas":6163,"fantastic":6164,"kinda":6165,"laughing":6166,"possibly":6167,"super":6168,"Ġmessy":6169,"Ġdental":6170,"Ġdentist":6171,"Ġlinkin":6172,"Ġbothers":6173,"Ġfrosting":6174,"Ġcudd":6175,"Ġcuddle":6176,"Ġgigs":6177,"Ġnasa":6178,"Ġnashville":6179,"metics":6180,"Ġelderly":6181,"Ġbelt":6182,"Ġregularly":6183,"Ġrescue":6184,"Ġhence":6185,"Ġhenry":6186,"Ġstylist":6187,"Ġstickshift":6188,"urban":6189,"Ġintellig":6190,"Ġintellect":6191,"Ġblowing":6192,"Ġmanicures":6193,"Ġcompletely":6194,"Ġconvers":6195,"Ġconvertible":6196,"Ġreligion":6197,"Ġentertaining":6198,"Ġgrasshopper":6199,"Ġgrasshoppers":6200,"Ġpediatric":6201,"beautiful":6202,"believe":6203,"macist":6204,"nursing":6205,"rasound":6206,"shopping":6207,"Ġarabic":6208,"Ġtiny":6209,"Ġthai":6210,"Ġticket":6211,"Ġmundane":6212,"Ġmuggers":6213,"Ġyelling":6214,"Ġdorm":6215,"Ġdestroy":6216,"Ġdesserts":6217,"Ġbridge":6218,"Ġcherries":6219,"Ġcritic":6220,"Ġcreepy":6221,"Ġgarfield":6222,"Ġgathering":6223,"Ġpaid":6224,"Ġpnb":6225,"Ġpoodles":6226,"Ġpharmacist":6227,"Ġinterior":6228,"ickens":6229,"Ġeagles":6230,"Ġbeef":6231,"Ġbeastie":6232,"Ġrefurb":6233,"Ġjenny":6234,"Ġjudge":6235,"Ġkicking":6236,"Ġstatus":6237,"Ġcosmetics":6238,"Ġthriller":6239,"Ġatlanta":6240,"Ġnephew":6241,"Ġscouts":6242,"Ġvampires":6243,"Ġviews":6244,"Ġclaustrop":6245,"Ġpretending":6246,"Ġjoseph":6247,"Ġwilliams":6248,"Ġtrails":6249,"Ġmachine":6250,"Ġmaintain":6251,"Ġexpressions":6252,"Ġdefense":6253,"Ġdevelop":6254,"Ġbookkeeping":6255,"Ġchewed":6256,"Ġcompanion":6257,"Ġwondered":6258,"Ġcommendable":6259,"Ġdiabetes":6260,"Ġrecognize":6261,"Ġmonkeys":6262,"Ġtradition":6263,"Ġtypically":6264,"Ġcafepress":6265,"Ġmicrosoft":6266,"Ġcommitment":6267,"Ġfrustrating":6268,"Ġcontinue":6269,"Ġmidnite":6270,"Ġcorpor":6271,"Ġterrified":6272,"Ġpublishers":6273,"Ġresource":6274,"Ġparticipate":6275,"Ġtitanic":6276,"Ġmacaroni":6277,"Ġmermaids":6278,"Ġmillionaire":6279,"Ġremodeling":6280,"Ġintroverted":6281,"Ġobsessed":6282,"rainbows":6283,"Ġnickname":6284,"Ġmushroom":6285,"currently":6286,"drinking":6287,"front":6288,"japanese":6289,"knees":6290,"luckily":6291,"pasta":6292,"pacas":6293,"public":6294,"sented":6295,"sburgh":6296,"Ġultrasound":6297,"Ġalex":6298,"Ġaustin":6299,"Ġaunt":6300,"Ġasterix":6301,"Ġarizona":6302,"Ġtaylor":6303,"Ġmurder":6304,"Ġmuffins":6305,"Ġmercedes":6306,"Ġsesame":6307,"Ġschw":6308,"Ġdeaf":6309,"Ġdwelling":6310,"Ġlatest":6311,"Ġloose":6312,"Ġlantern":6313,"Ġlamb":6314,"Ġlelesfashi":6315,"Ġlaundry":6316,"Ġlumberjack":6317,"Ġbora":6318,"Ġbieber":6319,"Ġcenter":6320,"Ġcorky":6321,"Ġcinnamon":6322,"Ġtongue":6323,"Ġghost":6324,"Ġgallery":6325,"Ġoctober":6326,"Ġoptions":6327,"Ġoregon":6328,"Ġpanda":6329,"Ġpearl":6330,"Ġpneumonia":6331,"Ġpittsburgh":6332,"Ġnaps":6333,"starbucks":6334,"studying":6335,"Ġinsect":6336,"Ġinherit":6337,"Ġhomosexual":6338,"Ġbeginner":6339,"Ġsociety":6340,"Ġresponsib":6341,"Ġrepresented":6342,"Ġreceptionist":6343,"rollerblading":6344,"Ġmembers":6345,"unfortunately":6346,"Ġkrav":6347,"Ġkurt":6348,"Ġstairs":6349,"Ġstubborn":6350,"Ġcoordinator":6351,"Ġcoincidence":6352,"Ġgoodbye":6353,"Ġnecessary":6354,"Ġtimberlike":6355,"Ġencounter":6356,"Ġencycloped":6357,"Ġenemies":6358,"Ġencoura":6359,"dostoevsky":6360,"Ġscuba":6361,"Ġschedule":6362,"Ġvictory":6363,"Ġvictims":6364,"Ġclubbing":6365,"Ġspaces":6366,"Ġpreparing":6367,"Ġorlando":6368,"Ġorientation":6369,"Ġcaracter":6370,"Ġoklahoma":6371,"accounting":6372,"Ġcheetahs":6373,"Ġcomparison":6374,"Ġravioli":6375,"Ġconcentrate":6376,"Ġdrafted":6377,"Ġcommercials":6378,"Ġhairdresser":6379,"Ġlaptop":6380,"Ġbuffalo":6381,"Ġnightlock":6382,"Ġhighlights":6383,"Ġquarterback":6384,"Ġmeatloaf":6385,"Ġgraphic":6386,"Ġescape":6387,"Ġescaped":6388,"Ġachieve":6389,"Ġparamedic":6390,"Ġsupermarket":6391,"Ġsurprised":6392,"Ġprinceton":6393,"Ġmilwaukee":6394,"Ġstomach":6395,"Ġsunshine":6396,"Ġremotely":6397,"Ġsyracuse":6398,"Ġfurniture":6399,"Ġauthentic":6400,"Ġobviously":6401,"Ġpennsylvania":6402,"Ġpediatrician":6403,"Ġclaustrophobic":6404,"Ġlelesfashionshop":6405,"Ġresponsibility":6406,"Ġencyclopedia":6407}